[PAD
[UNK]
[CLS]
[SEP]
[MASK]
!
"
#
$
%
&
'
(
)
*
+
,
-
.
/
0
1
2
3
4
5
6
7
8
9
:
;
=
>
?
@
A
B
C
D
E
F
G
H
I
J
K
L
M
N
O
P
Q
R
S
T
U
V
W
X
Y
Z
[
\
]
_
`
a
b
c
d
e
f
g
h
i
j
k
l
m
n
o
p
q
r
s
t
u
v
w
x
y
z
|
~
£
¥
©
¬
®
°
²
³
½
Ä
Ç
É
Ï
×
à
á
ã
ä
å
æ
ç
è
é
ë
í
ñ
ó
ô
õ
ö
ø
ú
ü
ă
ć
č
ē
ę
ğ
ı
ś
ş
α
η
ι
к
я
،
ا
ب
ت
خ
د
ر
ز
س
ش
ص
ط
غ
ف
ق
ل
م
ن
ه
و
ي
ټ
پ
چ
ښ
ک
ګ
ی
ۍ
ې
ố
ợ
‐
‑
–
—
―
‘
•
…
€
™
−
♬
✨
乱
盼
累
苗
ﬂ
️
🇲
🇾
🌺
🏻
💪
😭
##9
##5
##8
##r
##a
##n
##c
##e
##k
##m
##d
##i
##s
##u
##t
##f
##l
##y
##o
##p
##h
##b
##x
##g
##S
##q
##v
##O
##T
##A
##M
##B
##L
##z
##I
##1
##7
##j
##3
##4
##R
##0
##E
##C
##U
##Y
##2
##6
##å
##w
##é
##F
##G
##P
##H
##K
##V
##N
##D
##W
##X
##J
##Q
##Z
##ú
##ö
##ç
##ه
##³
##ر
##ن
##ی
##و
##ا
##خ
##ت
##ي
##ü
##°
##🇲
##🇾
##ę
##🌺
##á
##è
##ø
##پ
##س
##ć
##®
##ف
##ś
##ک
##د
##ۍ
##م
##×
##½
##ó
##č
##ē
##ã
##õ
##ق
##غ
##💪
##🏻
##ب
##ط
##ز
##ص
##ګ
##ښ
##️
##à
##æ
##ش
##ş
##ğ
##ă
##©
##í
##ä
##😭
##ợ
##ې
##ل
##ı
##ë
##²
##ố
##ﬂ
##ô
##ñ
##я
##ι
##к
##α
##he
##er
the
##in
##on
##en
##at
##an
##ed
##es
##or
##al
to
##ar
##nd
##ing
in
##it
##ion
##ent
##is
and
##as
of
##il
##id
##ou
##ec
##ic
##om
##re
##ay
##el
th
##st
##ro
sa
##et
##ation
##ur
for
##am
##ve
said
##ad
##ir
##ter
##ill
##ac
##ment
st
be
on
##ol
##ut
##ect
##ly
##ver
as
##ot
##ig
is
re
##ts
that
##ate
##le
##im
al
##ith
##si
con
##ow
##ers
wh
The
with
at
##ce
pro
he
##ak
##ul
##os
##ain
was
com
fr
##em
##ld
##est
##ri
Mal
Malay
##th
from
##us
##ab
by
##pp
Malaysi
##and
##ah
20
##ang
##ch
ex
##ess
are
##ear
##un
##her
an
will
##ies
per
##oo
##iv
su
##ag
##art
##ort
##day
##ere
##op
##ist
ha
RM
##mp
##so
ch
##ity
##ct
##ive
##illion
Malaysia
##oun
##ue
##ud
##ant
ne
cent
de
##ould
not
##ore
have
##ong
comp
we
##ust
it
ad
also
##ial
##oc
##our
pr
##igh
##um
tr
##over
sh
pl
rec
se
cont
year
##ff
were
has
inc
##rou
202
##ry
##ap
their
##vid
state
en
##ie
##oh
19
##ast
exp
this
had
ag
or
res
##end
He
##ood
##ile
##ous
##ber
##ated
In
its
##atu
million
today
##vel
who
le
##ther
wor
##all
##ions
##ich
##per
##ard
up
##aw
##ual
all
##if
which
##oin
cl
Co
##ure
##ine
un
##act
imp
##ell
##du
inv
##cc
##ice
##ance
##ia
Th
his
##age
##ep
##overn
##ip
##ount
##ational
##ail
##ost
rep
##gh
##ans
##oll
##ations
##00
add
part
would
##ord
##ark
##nder
Covid
govern
##uar
##hen
Ch
off
##fter
fl
sp
##ose
##ence
##se
government
fin
man
been
cas
Datu
##ight
ind
##ister
##ected
app
##eng
Datuk
after
##ub
##ime
We
##ome
##AL
KU
ab
under
str
##orm
##ities
##ank
##od
Ind
##MP
##out
new
##qu
##ely
tw
out
##anc
##ict
##ition
##eri
##ALA
they
Min
KUALA
##ign
int
##UR
##UMP
##UMPUR
LUMPUR
##li
##ree
##ection
##ical
pre
##ven
dis
comm
two
##ach
##ack
more
me
poin
while
over
##gr
play
##erv
am
our
##ents
sen
##ector
mon
##able
count
but
min
##lic
##ult
dec
##form
can
##enc
other
##air
##ru
fir
##ased
##amp
##man
##ari
supp
flood
##ob
billion
2021
##eb
##are
acc
##ates
ass
el
##ik
##row
##roup
##uring
rel
pol
##ake
##ices
one
last
Sab
again
pe
##ek
##arg
As
##me
##ief
##aj
##arket
Dec
te
cases
act
added
##ved
##lud
contin
invest
##ary
compan
##og
##ital
##alth
##velop
##ings
##ase
##ise
##rough
RM1
##ople
Joh
##pt
##old
##eral
##ex
work
loc
##ai
##ade
includ
when
##ace
inter
well
##con
sec
bet
hel
##duc
pos
points
there
##ating
St
people
Bh
##ments
##ide
reg
##ild
##ee
Malaysian
rem
oper
Bhd
Sar
first
against
##ters
##ond
##urn
##ung
##acc
##ving
##emb
##ove
##ors
us
It
incre
10
Ab
time
##conom
##hed
##itt
so
Moh
mat
This
##awak
team
##ever
Sarawak
market
##urr
12
##ember
three
##ester
Johor
Al
201
country
##ident
Sh
##omm
##ok
report
##esterday
##ound
##ish
##res
##we
need
##ook
statement
cons
21
11
through
##iness
##iss
develop
##ublic
econom
only
On
month
sc
Minister
resp
##ollow
vacc
bus
here
##fore
##ew
##orts
##pen
000
Jan
##ised
##own
##iz
do
Sabah
##ious
pres
Seri
end
day
them
go
##ass
quar
conf
due
##rib
serv
into
co
##aus
tot
ear
##ced
##oy
Is
15
##owever
inf
such
##les
dir
##ech
business
she
##ward
eff
follow
yesterday
##hile
##gan
2022
about
##istry
any
##ite
total
company
##ility
##its
iss
##ower
##ib
could
hig
##one
##ject
record
##av
##eg
##ean
being
##ater
##up
med
offic
##ix
ret
##erm
##ction
##mer
invol
##ecial
during
bec
##ared
##ims
Az
four
##ning
remain
still
group
grow
curr
ev
provid
##iver
local
##urs
##ative
##ra
dep
##emic
Dr
##ince
##und
before
##hip
no
##ren
num
than
vict
br
including
Tan
##ory
should
Per
Feb
##ution
##ween
##ged
##ision
##ently
aff
18
between
support
high
years
win
ar
US
rece
##while
##ump
def
##ourt
cap
Abd
##sp
Comm
30
cr
##tain
her
players
prev
sub
Sel
if
financ
lead
##gram
ann
chief
##ited
##oth
14
help
No
Dep
indust
##ics
set
##BM
public
Pro
open
whe
##au
Mean
Un
##ued
Meanwhile
trans
##ron
dist
##amil
##ries
##als
##az
##xt
since
national
att
##med
number
week
##artment
election
##national
##ath
##ey
bu
##ied
RM2
##ge
gen
##din
##ire
expected
##ian
net
continue
vari
Abdul
ac
Index
second
However
##andemic
bel
##let
vaccin
pandemic
told
now
##ateg
##ough
##ame
next
An
##ble
level
meet
##ause
##angor
Health
##ures
##af
##olog
Sri
Selangor
##yst
##way
project
##ick
FBM
main
higher
my
fac
Mar
car
For
tra
director
some
##ives
lik
Mohd
##ues
##uary
##ional
made
reported
Pen
##mad
##aking
Kual
Kuala
16
impro
term
##stit
allow
##echn
##ef
Chin
party
ens
##wn
five
seat
##ission
##other
##osed
recover
sector
##uk
development
child
##itive
Con
##ising
those
13
Cup
##ecut
back
##ern
##ific
ful
val
hous
get
Ministry
financial
gl
growth
##ency
receiv
##led
##urther
##lement
qu
post
recorded
prof
quarter
##ks
produc
##agement
famil
17
##ty
En
##iti
sever
##no
take
program
Res
##ax
##der
hop
##ording
world
##ens
##iven
Sing
opp
Kel
Department
Le
announ
police
##ool
December
dem
start
among
##duct
kn
both
##ants
##min
22
disc
##ange
activ
adv
previous
sur
victims
##til
own
##ss
bank
increase
des
##ery
23
##PS
##round
2020
perform
National
##eh
good
appro
Asi
##ted
MA
same
25
##ric
industry
##earch
health
##unity
##ress
sal
##chool
##ribut
further
Bank
##isation
##iew
children
minister
24
##ract
following
long
Kh
down
sign
because
economic
services
##ked
##ium
##AM
##read
vis
##ally
Group
assist
##ivid
##ederal
det
KL
strong
##oost
call
di
where
respect
based
old
##ept
##ystem
31
gre
ensure
techn
##igital
aut
floods
##hes
del
these
six
stud
##ament
trad
##ones
##mail
##uh
##rol
many
##ting
president
pers
stand
##rict
positive
##ively
qual
oil
given
At
##andid
want
Ter
rest
##ason
belie
##antan
areas
did
just
school
cost
import
candid
##venue
received
sol
affected
boost
##ug
requ
##apore
Singapore
must
chair
##pped
##loy
pri
may
##uddin
test
##stru
##ecially
RM4
##outh
Am
##ecutive
esp
##uation
sm
Mel
general
especially
bo
##por
make
##iod
##ism
##line
several
Part
RM3
cor
implement
##dn
##ird
decision
ever
cer
##osp
ben
##sive
gr
rate
head
Ismail
compared
##cess
red
products
each
inform
##oot
##ross
former
##lin
Pr
travel
##umpur
price
Lumpur
coun
##aka
show
Moham
##ajor
Indones
Fr
lower
shar
##ner
##ocus
##get
period
los
close
##iation
land
##obal
##uty
him
##eign
demand
fund
Penang
Wor
sl
##uch
look
compet
focus
investig
coll
par
##aster
complet
most
im
polit
final
major
Pl
##aya
##embers
26
##ained
soc
##oad
like
Burs
Bursa
plan
sit
##ights
Sdn
dri
see
Neg
person
emp
case
conc
then
Sept
##elf
held
ph
units
##ful
better
return
##port
move
home
foreign
28
ob
press
coach
Man
manag
##ati
##ves
There
ris
revenue
countries
members
est
##lier
international
cle
##rial
death
##ffic
##ague
##ology
found
fe
sus
ent
Melaka
expect
Oct
far
##ividual
programme
Kelantan
ref
Pah
recovery
third
RM5
digital
##ended
Jun
##ling
meeting
even
companies
officer
##apan
##ential
prop
##ospital
Sp
##erg
##ash
process
individual
activities
##ata
##arget
##ural
##ittee
Ar
Tr
27
Oly
Olymp
parties
supply
share
chairman
ext
worth
target
##ustom
prep
##wards
opport
May
days
##uan
water
Om
near
Ah
court
##ffer
order
##ption
partic
executive
##ying
##ese
pay
Acc
law
##encies
##embly
increased
##pite
Inter
Perak
Court
every
best
experi
##ret
effect
Pahang
##pr
##OP
##aim
##ather
elect
equ
##iday
sust
offer
another
##ention
profit
applic
United
##aid
50
months
##itted
Muh
Um
##ind
##ular
current
##pm
##reat
air
hand
saf
##ending
involved
tak
Nas
March
##ave
##ability
January
provide
media
##ft
initi
##ganu
prices
##engganu
Terengganu
Pet
##aun
Su
Jal
system
performance
management
economy
##Y2
##uss
##soc
met
##ute
##eal
announced
##omest
SOP
##ral
centres
sales
Air
##aining
World
susp
My
wom
##iel
##CC
dou
what
redu
Fin
av
shares
operating
join
70
very
Par
##ership
##cil
##ior
global
top
charg
##hor
various
##fact
strateg
states
Ahmad
index
Parti
match
So
Ked
vaccination
##chie
According
League
custom
Shah
##imes
##ock
##ration
FY2
id
value
cre
event
laun
##ames
fact
seats
fut
contribut
achie
camp
dr
##rop
form
until
Umno
100
##CI
##alleng
They
Indonesia
##omestic
streng
##ton
##AP
involving
##ingg
say
rev
hal
##iting
situation
Kedah
Kamp
place
Cor
##ivers
vol
Sabri
##land
##sible
interest
##TA
##ider
##icron
read
proper
##te
##utions
##ersatu
##ara
challeng
operations
early
##ness
Omicron
##ified
200
account
future
Sung
##ination
prom
know
##ufact
previously
##ages
She
Indust
respon
result
way
social
New
##ink
tour
issue
Kampung
Bersatu
Che
list
##com
others
sustain
nation
ur
##atives
enter
29
pur
political
De
China
pass
##ergy
##itor
improve
##resent
Khair
##alm
rose
within
respectively
impact
polic
Sungai
che
##onment
##ducation
build
use
larg
vo
alle
##ces
Act
vir
##ening
Ag
Sy
BN
##lah
##ampions
families
Har
vot
bring
##ilities
Federal
##NG
##ety
addition
produ
seven
vaccine
##ama
PK
##ball
##erence
If
International
investment
men
##lis
able
organ
contract
around
sent
Ad
manufact
efforts
currently
Sec
##ises
##oung
booster
allowed
##ork
RM8
earn
##lam
##uda
##struction
Serv
##ootball
relief
hope
bro
present
##ehic
##unities
recent
lat
turn
line
##less
individuals
Em
contest
short
Jalan
40
assembly
nam
##ota
prot
non
towards
discuss
face
heav
##ield
season
ministry
area
ended
##liament
food
special
deliver
note
With
vehic
##cept
loss
data
hospital
RM6
candidates
important
succ
mod
##vest
eight
##stand
##ets
quarant
Commission
##orn
investors
technology
##ii
forward
matter
MP
domestic
Malaysians
##ier
taken
##go
official
Noor
##hold
used
appoin
##aign
##vir
##ually
Friday
risk
Br
But
##orrow
benef
##unic
poll
you
State
control
Japan
road
##itions
meas
Cent
City
community
Nasional
pot
##abor
register
clust
Prime
represent
author
key
##vironment
##inggit
without
##ani
despite
##ceed
rele
Asia
hold
bas
conduct
doub
standard
employ
related
##ole
young
##ient
tax
how
ringgit
confir
bre
##ife
gu
SM
##mark
point
campaign
continued
success
##ened
##ately
sing
Ph
cond
full
come
having
women
potential
##orters
followed
KLCI
tem
September
Bar
##vate
information
capital
##erc
half
##ruary
February
heavy
infect
projects
To
##els
claim
led
##ovem
ra
##ches
DAP
Novem
##ti
November
##ured
sy
60
Mo
June
High
Nor
Coun
trade
happ
##asing
consum
construction
bl
variant
inst
##ired
Pol
##then
expl
All
##sociation
quarantine
2019
##ck
adding
subs
Abdullah
fell
mor
##br
##ided
leg
fully
port
Islam
pati
El
strengthen
low
via
##nes
##ides
##ready
##medi
care
##ways
put
conference
Services
past
PKR
yet
##aily
family
already
position
date
ident
Jia
won
##ead
concern
job
##ober
log
Lee
Asian
##hest
Council
##uly
evac
##amb
centre
action
board
##ys
##antation
##velopment
##isham
students
Ex
Muda
##idi
earlier
##care
##cture
GPS
Naj
Or
much
##ists
working
district
BA
assistance
bord
##sib
house
application
training
Section
Mah
palm
Public
##ours
##though
workers
making
taking
Tok
income
infl
##ession
Hisham
round
Zii
Mon
power
##ann
customers
production
opened
believe
issued
fail
October
Thail
Thailand
big
needs
##iving
don
##erve
##ume
particip
##io
##bank
issues
##ixed
immedi
experience
give
##ollar
##verage
##int
Eng
##atan
spe
consider
Chinese
differ
nine
asked
##for
##aman
##NB
alloc
Najib
neg
Development
pop
52
##IM
Research
Buk
however
##ultan
##ines
tourn
fil
MACC
lost
##ulation
highest
##ots
run
##ale
##ID
##ried
##ched
contact
ton
##yo
##cement
32
Bukit
##sia
34
businesses
sell
##ooper
opt
##omp
research
33
capac
Aug
proced
##DT
Bes
##ody
qualif
deaths
visit
hit
private
mid
##isting
collabor
ke
dollar
real
service
Put
##eration
##side
##ruption
Bern
58
according
war
eng
##ony
Super
daily
80
opportunities
maintain
45
75
Chief
##atform
stat
amount
lo
##err
Tokyo
##idents
recently
36
toget
soon
together
across
35
##IC
##ences
namely
##wide
##anged
exc
##head
gain
Ass
going
capacity
##stitution
Wan
JDT
Lim
##ances
went
##work
Chen
##urity
##ults
platform
voters
##ert
game
##inal
##ator
56
Committee
##SB
##ilan
deal
confirmed
emer
##isan
##gest
aged
Muham
later
##ana
Sa
##ned
July
expand
BAM
PH
##nam
reop
caus
##rast
completed
pros
right
reporters
Sultan
##part
earnings
doubles
##ku
##ically
##tic
Invest
energy
prime
latest
##ees
tom
called
firm
Association
Games
above
Ho
Kl
##AS
seg
tomorrow
53
measures
##ins
##admin
markets
##retary
##adminton
cover
##ei
beg
deb
aid
##adium
opening
vaccinated
Bernama
##osition
small
##mitted
clos
partn
##eleb
##ribution
##ering
view
agencies
done
authorities
51
quest
property
##ources
Gen
rain
environment
##atic
##ators
improved
matches
##ons
agree
registered
##iet
goal
proposed
Semb
Mohamad
investigation
Of
em
##ulture
##OR
think
seen
retail
sim
##by
##ily
##angk
##endent
South
always
minute
Khairy
dose
compr
Olympics
saw
continu
federal
patients
FC
came
##val
mo
find
Market
took
2018
online
teams
jud
##imum
##rastru
Sembilan
Dar
squ
##ecess
##ects
terms
achieve
38
inj
##ined
less
clear
deputy
##ude
finals
90
Ham
Petron
vers
##yc
monitor
Azam
cooper
##uled
incident
Rak
let
##ests
plans
closed
green
arri
AC
##ging
trading
Petronas
42
AF
##yat
policy
Centre
existing
Emas
enc
39
using
morning
include
Negri
##iend
##par
friend
Pas
##iq
##ilit
remained
Mus
started
65
72
signific
##going
reach
along
decided
schools
##hing
change
Maybank
##OH
coming
manufacturing
54
##reed
ahead
##oses
hard
prem
arr
acqu
5G
eas
whether
37
few
##aced
##udget
significant
Mas
mot
Aziz
celeb
tourism
ago
##rought
Klang
55
##blem
Parliament
##rastructure
understand
product
##mm
alleged
least
##ili
weak
##mes
saying
occ
div
times
fourth
prior
Monday
66
wr
Sat
football
estab
PPS
treat
track
player
08
Pre
seek
##cue
likely
57
costs
problem
##ible
purch
lear
##arm
too
##pping
squad
restrict
launch
clusters
Kota
##lers
possible
48
##pl
Ya
ed
mom
tal
regard
does
remains
infections
RM9
Stadium
##sibility
Muhammad
##aged
candidate
Olympic
Fac
Se
declin
implementation
##ampionship
safety
counters
Open
lab
73
stay
appeal
Ali
##aging
Nov
59
Hold
quality
showed
brought
Pe
##ahim
left
address
estim
spread
vehicles
Teng
##RA
promot
64
sectors
62
necess
direct
41
education
mob
##atory
63
average
mult
become
procedures
pract
crit
Cons
Hong
##itment
##ream
##aff
noted
RM7
Under
##rec
##tom
Ser
Tun
dam
ins
sk
avail
76
##omet
infrastructure
Negara
61
region
enh
network
sustainable
Aman
FAM
Te
##anced
Ber
member
money
moment
operation
committee
throughout
aw
tit
##alle
Among
##holders
Gl
General
##used
clean
field
##ases
session
disaster
certain
Plan
nationwide
##ached
##ariah
Aff
different
##IMB
progr
##akob
67
##lish
require
43
beh
##tern
46
wa
##emi
August
##anger
needed
Batu
War
role
##egr
initiative
Sen
##istic
admin
bench
versus
rise
senior
09
autom
##ina
secretary
attract
urged
util
##ze
Cheng
##rep
claimed
Zain
##AN
##aded
majority
Pak
night
##back
intro
integr
defe
ready
##HB
##ivil
cash
74
sel
##ature
leaders
##ategory
encour
buy
49
##vers
facilities
looking
And
##ietnam
71
##sel
##ories
prepar
Tw
initiatives
68
Vietnam
Wh
Year
##istics
##itness
##ivity
victim
##itiz
82
##TS
##ats
book
##itial
Management
Holdings
##istration
keep
results
##tera
##liance
labour
vent
##asn
begin
Yaakob
sw
##amal
Re
lim
proceed
##ependent
additional
##changed
78
free
##SC
sched
funds
fight
##ebook
confident
building
##uman
##ple
volume
77
review
reason
population
99
44
KO
MC
away
pair
500
Facebook
unchanged
nom
rising
news
sug
##atch
programmes
Trade
draw
Ros
##udin
amid
Chong
Ken
##raj
##RC
RM10
##itting
cred
Dis
citiz
dro
il
tel
singles
mark
##atural
IC
##ape
##nov
Police
Election
47
##most
##ih
stood
shut
access
managing
opportunity
##hlet
##andar
agreed
treatment
provided
SME
tempor
##ems
Wei
receive
managed
KOTA
##tr
overall
medical
Syed
question
active
Sim
regul
Ng
cann
mainly
anal
199
coal
##mi
##idence
scheduled
athlet
doses
polls
eased
increasing
might
norm
##tion
why
remaining
levels
gold
tre
obtain
broad
07
##ER
assets
##ten
##awi
agreement
97
Ear
step
solutions
##dr
##ING
express
electric
instit
CIMB
benchmark
##be
##ici
##ocu
Lab
Wed
side
chain
Program
##nesday
Wednesday
Tour
conv
##rene
Industrial
##50
##down
stage
leading
GE
##30
known
EC
##urities
##change
##ought
Hoe
Met
host
regional
##mical
restrictions
mother
##lim
optim
Af
Deputy
1M
##ilar
required
implemented
joint
##coming
collaboration
status
##aces
unit
reduce
When
CP
scor
Mer
##utes
banks
##uang
Ibr
lot
##RU
##erate
approved
cannot
Fed
initial
##enced
providing
cooperation
Our
lif
##lex
Thurs
2016
believed
body
fire
residents
prevent
##rajaya
pack
subsidi
Thursday
mixed
office
##reprene
Ibrahim
88
##vant
##erial
ongoing
Alam
particular
effective
##come
segment
79
Raz
##inc
Financ
strategic
##DP
##att
chang
competition
conn
constit
##unications
Putrajaya
Sc
##angs
India
works
appoint
Rakyat
once
witness
Rec
##AB
clim
brand
corpor
Plantation
81
Taman
winning
##ercial
progress
03
pen
##hers
benefit
available
98
heavywe
##DB
69
Des
commitment
##ampion
Cont
create
conducted
caused
PN
##unction
##ogn
continuous
cour
never
youth
##ulu
transport
defend
##app
##omes
although
leadership
##ury
##nel
phys
Wong
##adi
Mohamed
Ku
##ga
healthcare
##ugg
Islamic
##SM
staff
almost
trend
miss
##struct
##asni
Bo
ground
indic
decre
##fficult
Programme
difficult
launched
champion
##umul
##oor
##esh
prepared
85
Education
##PP
Dew
Yesterday
##ested
age
##ansion
##rul
##aga
financing
lands
##ties
##ensive
Perlis
carry
ACE
After
late
committed
institutions
95
vide
##aut
semi
##ov
events
tested
negative
natural
material
##ricts
Dewan
gas
spec
valued
Sports
consumers
##IN
Univers
Its
districts
91
##lan
##inated
expansion
weeks
constitu
Bak
PAS
trial
cert
pressure
PB
While
##quar
thank
hours
Championship
##ike
##PM
##ecution
##emony
heavyweights
##iddin
##ocks
##rug
largest
appointed
##look
passeng
relevant
docu
hot
forec
independent
Eu
##ients
##oles
Abang
Muhy
rank
##ipment
aim
officers
traffic
banking
charges
tournament
parents
bringing
selling
suffer
asp
department
Tengku
##atal
##emp
##ourn
App
flat
Shariah
##ke
##urday
Saturday
coalition
mas
upon
Also
suspended
challenges
vill
ren
##lished
Earlier
Med
club
##ungan
12th
owned
payment
identified
##rain
Trans
failed
89
##mptom
dropped
These
organis
inflation
Muhyiddin
Kore
gained
rights
reb
repl
##igation
adop
SOPs
05
Reg
1MDB
cho
##ification
recogn
stru
mean
crude
range
Malaya
played
amend
##rupt
grad
Financial
Nur
##ify
propos
borders
driven
movement
##acing
great
86
##ij
##alu
assemblyman
successful
partnership
Budget
##wang
instead
BARU
fine
reopening
sli
central
confidence
##MC
Ase
plant
conditions
immediately
##pon
##ished
##iated
investments
respond
carried
England
96
##ison
##acts
ceremony
citizens
Asean
IP
##CH
##airs
goods
##aters
##eds
leave
senti
Pan
##oid
minutes
Govern
##ont
##elt
assess
defence
feel
Tues
Tuesday
Comp
##sif
enfor
slight
mach
commission
respective
similar
Europ
01
vice
##den
accept
##idin
##ills
export
##formation
Anti
stake
included
Ment
commercial
Baru
shutt
##ience
##wan
traded
Cl
Ta
sche
virt
informed
equipment
division
slipped
Finance
Disaster
Sund
roll
##abin
personnel
ple
innov
began
supported
response
Aust
##acy
class
accused
##elfare
large
items
SE
##ua
##avour
SC
declined
##02
##ival
design
##alley
hear
industrial
83
Times
FY21
max
##bed
##ali
strategy
87
Sin
dest
lack
clin
reports
lock
determ
drive
border
suggest
Soc
##cing
apprec
approach
security
necessary
name
##IT
contacted
Sunday
li
acquis
92
fans
##bon
goals
farm
rul
rates
##lu
##irc
sports
outlook
playing
self
##iers
##aches
##thing
buying
Zah
born
##miss
things
stri
technical
athletes
PP
bar
States
sett
facing
imm
equity
Rt
##izam
estimated
Jaya
Securities
normal
##isc
##leg
##selves
losses
##micals
Valley
accel
wise
##isions
##ecting
personal
Ram
infection
announcement
allocation
84
lic
chann
basis
homes
Q3
listed
enable
cumul
immediate
Besar
##abinet
04
upcoming
KUCH
virus
KUCHING
decl
Techn
##ounts
That
consumer
portal
corporate
IH
##oud
examp
94
##cer
stop
lawy
title
below
##ehold
longer
wanted
obs
purchase
Bill
bur
##oom
houses
starting
Tel
##uit
appear
advised
Football
##ource
living
##de
includes
detail
celebr
Jamal
race
##cos
198
safe
sustainability
AFF
subsidiary
life
pil
admitted
Johari
raised
delay
vehicle
##illed
entreprene
legal
spot
avoid
Amanah
##ological
placed
2023
##erious
Peng
##ps
##bs
##jected
Apr
hist
civil
fall
father
growing
signed
Mat
##vention
##DA
stock
distribution
Investment
AS
serious
behind
Warisan
93
vi
##omas
compon
getting
temporary
II
Rah
canc
ment
##iminal
plantation
Produc
02
Aar
Kong
cause
##KM
prim
##overy
phase
##TSE
video
Bum
sure
stocks
Econom
FTSE
ele
chance
continues
##angsa
April
gross
Although
prosp
dev
teac
household
Labuan
Apart
award
##itter
prov
champions
advanced
##Asia
Shaf
profess
badminton
wel
trust
Brit
break
Li
journ
enhance
Kar
comb
exports
single
evid
rout
approval
Government
##aled
contributed
concerns
physical
divid
hy
##gency
exerc
suit
letter
Hospital
your
##zal
annual
Based
##sequ
Stra
symptom
forecast
##urance
##ender
establish
ICU
cumulative
Aut
shared
AirAsia
##ma
##TM
##aments
##igious
example
Goh
TNB
##ger
though
charge
##draw
expressed
lin
reached
Haj
card
withdraw
##ocr
disp
distribut
Constitution
detected
voting
Austral
06
La
##here
##iture
##aker
stress
compl
2017
expects
tournaments
Pakatan
Straits
Sw
hol
threat
resol
Healthcare
receiving
Harapan
Sector
mar
mand
##aran
agency
Corpor
Control
Bah
Pu
front
shots
##augh
reduced
maximum
SU
weather
intern
Energy
##uching
danger
wind
Products
Den
Mot
favour
##rants
##za
credit
acquisition
Badminton
gave
sil
facilit
##men
##mission
One
filing
chick
enough
##elled
Industry
Over
pus
somet
##erated
Despite
den
##night
partner
purp
##fort
##umption
hopes
parliament
drug
##aper
Thomas
filed
illeg
check
jobs
electricity
Ger
cut
##iring
particularly
Digital
cou
got
##ST
##lied
##IB
exchange
rescue
untr
tonnes
momentum
Kim
##uge
Hous
nomination
Q4
##40
##ably
alleg
Japanese
Kin
Lt
located
vote
Imm
##ners
##erce
groups
study
loan
lockdown
Cr
Kuching
##joy
dead
upd
##ubber
monitoring
##quarters
EP
scre
Corruption
sentiment
Day
Yus
light
##zi
##arily
##INAB
Ax
His
##sh
##ula
Darul
IHH
KINAB
Youth
recomm
condition
##ategories
Arab
challenge
comprising
Raj
tri
forced
##uarga
Camb
KP
##cent
agric
##ancing
Barisan
Sal
human
##lying
##ALU
engine
Cambod
instruct
##imau
KINABALU
cur
Ann
contribute
##ene
##ada
medium
Keluarga
volun
Pasir
##SG
##ids
reve
really
selected
SK
jump
##eo
Low
##crib
involve
carbon
Def
Fund
##unication
##erred
During
bal
users
FBMT
prosecution
Rash
contesting
gainers
bri
##ither
##ift
means
##oyal
council
cluster
Din
pick
space
appointment
entrepreneurs
marg
recip
enjoy
afford
##certain
Gh
##rah
##anch
stated
##abilities
investigations
untraded
##aving
##uees
guid
serve
##king
##ders
##ians
tim
##ll
##heast
Therefore
Denmark
cru
circ
everyone
separ
risks
Soon
Harimau
protect
evacuees
changes
Ak
elig
effort
judge
bag
cross
##abled
Instit
flow
##raft
##lines
renew
##aps
Bal
Gab
paid
transact
##athir
refl
analyst
decreased
bes
mis
Cap
city
doing
medal
Federation
Rashid
beat
MoU
premises
introduc
aud
died
##AC
abs
##urred
bad
##vert
Isk
stronger
complete
logistics
Last
Tai
##aries
improving
grant
policies
dividend
fast
##yp
deploy
Indonesian
Chemicals
model
learn
course
##fer
##ler
station
##standing
Iz
##jah
contribution
##ledge
FY22
seeking
MID
RE
Yong
webs
actives
greater
offered
Jamaluddin
Other
fair
##apid
believes
Consum
##incip
Set
prec
surve
Exp
##omin
dise
industries
posted
hoped
offering
achieved
certific
Fire
King
Sek
##ooi
Wee
vaccines
##essions
relations
attend
charged
Mahathir
qualifiers
Korea
##cosystem
Pul
fig
##iety
greenback
professional
Kinab
Ir
##lies
##heless
exam
resident
employees
Aaron
Pri
jail
kick
Abu
Corporation
lives
##amat
##emor
enterpr
##ticip
evidence
##ya
##ba
suspect
explained
Besides
motor
British
##iger
finish
decide
votes
Gabungan
Hal
##ne
##co
stor
anticip
Cho
slow
slightly
ecosystem
river
##iong
ensuring
polling
Zaf
##uel
disrupt
planning
laws
evacu
Recovery
00
Famil
seiz
2015
documents
##eet
##mar
##TL
asset
themselves
corruption
hospitals
Rahman
Sun
insp
extended
illegal
East
remind
responsibility
comes
moving
Tem
##oming
##use
shot
finance
strugg
problems
contr
2025
quick
Mohammad
telec
PU
Sep
outside
Leong
ordered
chicken
Cambodia
Iskandar
apart
##iations
##of
##umb
raise
##autious
##ais
##ming
##15
##istr
attack
Force
entire
SMEs
Category
Ten
cautious
site
##son
super
resources
matters
Appeal
Saf
TH
##han
Special
woman
organisations
##zan
strict
issu
Pej
Must
Yik
##ship
MyS
Championships
Sub
diver
##rist
##ker
##band
##inery
opposition
Family
##da
##omen
Inf
diss
provides
Global
Be
ten
locations
facility
speed
roads
easy
mobile
Follow
Opp
##AY
whole
Rescue
coverage
rob
pray
princip
##iction
travellers
loans
Prem
Tourism
force
spir
virtual
website
Lang
##hib
manage
pointed
Assembly
eligible
telecomm
thus
Phili
Philipp
JOH
compliance
viol
exercise
Cabinet
DNB
Park
Turn
Wooi
source
##ram
##rif
focused
something
MN
Op
pet
expert
commod
currencies
released
Pejuang
Following
JOHOR
GDP
foot
shed
##cks
uncertain
accounts
faced
Ltd
Institute
##ha
##qual
##63
upgr
headquarters
factors
understanding
Far
##view
##ordin
overse
limited
Bu
fixed
##iate
##AR
presence
Prof
applications
partners
teachers
Turnover
giving
defin
CPO
##ham
competitive
moved
##empt
challenging
allocated
wave
##oted
orders
##enda
##uarant
##ultural
journey
Awang
location
##ibility
linked
Zak
ban
core
either
spok
Main
Some
housing
prepare
suffered
MM
##amar
delivery
debt
enforcement
PC
SD
duty
##ols
repair
undergo
shortage
maintained
regarding
##had
##ask
##asan
##akes
volunte
Opposition
##AYA
base
##Os
##stant
compound
depos
leader
coaching
officials
symptoms
operational
advant
beginning
brief
helping
strength
MIDF
Keb
##light
orig
planned
participation
visitors
established
Affairs
complain
Law
except
criminal
rural
tou
comment
arrested
Sout
liqu
revealed
Langk
##katan
##ilt
Saif
scored
landsl
Southeast
Nad
RHB
##tar
undert
Universiti
Defence
##jahtera
Red
cyc
category
##uro
##akan
scale
returned
connect
Can
fre
sold
##ulated
##ables
victory
##ension
solar
requirements
proposal
Langat
##vent
resign
allegations
sat
Security
Form
MR
Peri
RT
##dle
##olah
surge
knowledge
turned
Maj
Pa
Pad
col
##pin
##ams
ste
Chan
decline
Shar
optimistic
constituency
drop
##ective
elections
double
Board
Premier
crow
wife
conj
minimum
Agency
celebration
##otive
fresh
exceed
Christ
shel
critical
Sad
Tur
gather
##aur
##mit
##IA
##ero
##reet
Azmi
silver
##WN
##etary
waste
contain
defeat
Twitter
recipients
Rus
bod
poor
##sc
##pri
##anan
improvement
Phase
Zafrul
BW
aims
bul
room
##zah
##war
##ura
effici
manager
warning
Berhad
Langkawi
Sap
um
##gg
##ervation
qualify
What
machinery
Kinabalu
##set
##uck
##bers
##jung
2030
adj
coaches
allegedly
rubber
operators
affect
##ssential
boat
lawyer
EV
Hasni
Pek
##AE
statements
depart
##ented
Code
fulf
Consumer
Dub
Just
Rad
siz
##eor
##ane
heart
history
stressed
damaged
Razak
penal
Bel
Rel
er
##ev
assoc
RM12
experienced
customer
climate
Naz
mission
commerce
shareholders
Dem
huge
medall
became
FY202
Sekolah
SP
##pass
sav
possibility
sale
Mor
pan
##put
##unisation
##ends
offence
developed
losers
tonight
priority
wait
holiday
PSB
incent
##ticle
Two
Europe
Go
park
und
##isl
##rehen
Terr
manufactur
conjunction
Dubai
Off
##TC
##eries
resulted
typ
Ong
transformation
losing
##ocratic
##ooth
##olution
##udi
afterno
developments
quite
Corp
CE
Oper
PIC
Yang
wants
parts
live
tight
##10
##urrently
Azman
helped
happy
emb
##acific
imposed
##ologies
afternoon
MB
Sem
Since
##hous
##jang
intensive
subject
solution
object
prosecut
arrived
waiting
details
Hass
mention
consult
300
Born
Loc
Pacific
##ban
##icial
store
generation
solid
latter
happened
purpose
Philippines
Meng
fest
##que
##enting
Environment
##iji
prospects
PUT
advantage
Kr
##ges
disapp
highly
Another
speech
cruc
Not
fear
stable
2024
payments
brother
amounting
Technology
UAE
##fol
##wer
consist
Resources
Muslim
administer
introdu
SUPP
terr
##ancy
RM100
severe
Team
venture
Hajiji
Australia
MySe
Gr
boy
##eed
##itional
##eful
counter
feed
component
Net
fish
mer
secure
traders
##aidi
Laos
facilitate
crucial
closely
broader
pilgr
MySejahtera
Hulu
fatal
##awan
##fficient
portfol
Gold
train
From
install
administration
ESG
Nik
Sm
Yew
##AH
##imately
submitted
effects
benefits
friendly
##ique
balance
introduced
ME
Port
east
gone
attribut
quoted
Perikatan
##aims
##inations
##aly
##ars
governance
mind
Assist
Azizul
scheme
mit
##RS
##ommod
art
feat
responsible
##emorand
Md
##icro
environmental
Hamzah
replace
hearing
Ac
Siti
essential
purs
##iding
##eter
##illing
##anded
percent
Reserve
protection
bask
##MW
##alay
built
practices
aware
Dan
Yo
yield
##utera
recovered
negot
promote
obtained
PICK
Tra
compete
viral
Organ
utilisation
German
savings
TO
##ican
##olly
meant
grew
Both
Top
yen
Alliance
evacuation
expanded
AL
Fore
##ien
##onze
##itch
##ilty
communities
ending
bronze
tourists
guilty
residential
umrah
Uk
wal
##GS
floodw
allowing
discussed
passengers
declared
##rel
##elines
whose
transition
Kuantan
##iscal
Bumip
Hassan
Foreign
Kem
Mail
pun
##fall
##ighb
developing
monthly
returning
buyers
overseas
Aid
Jud
Uz
pound
tick
##ita
##ope
subsequ
Anwar
Dinam
spirit
##Now
##itely
agenda
glob
meth
discussions
People
##rehensive
##alaysia
Dinamik
Bus
Gre
Home
SRC
euro
games
neighb
##encing
expectations
strategies
Serba
integrated
transportation
600
MF
liv
driver
targeted
employment
Order
biggest
assessment
stakeholders
burden
Bang
ball
##eness
expend
reserv
smooth
treated
rebound
separate
tests
##va
trying
registration
announce
Party
represented
##emorandum
Men
son
town
##itory
##ittle
retire
career
weaker
missing
Nadma
zim
##now
shop
showing
ide
representing
Today
concerned
AFC
wrong
learning
Pekan
HL
NSC
Ye
har
##hel
apply
quarters
considered
friends
regulations
welfare
##yond
##JAYA
beyond
##olid
##aph
Chow
##imself
systems
Industries
segments
passenger
EPF
Capital
Land
himself
nar
##mah
##amew
##ading
economist
glove
synd
happen
multip
ranked
felt
mil
waters
##aling
supporting
Amir
mostly
influ
Transport
reminded
MI
##teri
Proton
Da
Emp
borrow
sitting
##essive
##idge
forest
summ
Economic
##cribed
PJ
mess
##has
##thern
Penins
Khairul
named
holding
dig
##iced
##ifth
governments
investigated
primary
Author
hub
##oon
##outhern
##ades
altern
becoming
advance
assistant
Affin
##angsaan
Kebangsaan
Ukrain
marketing
reportedly
BNM
bagged
Choong
Local
Further
Rep
hon
rapid
wid
##red
##sy
##yle
##20
##isis
alert
actions
2014
served
highlight
Community
attention
Penal
views
choice
##ph
claims
doct
##raz
30pm
funding
completion
entry
produce
ventil
Afzan
MSM
budget
##osure
char
Add
mobil
##sified
tough
portfolio
lod
##atively
##anmar
##road
operate
coast
importance
smart
Myanmar
##RAJAYA
##ternal
agriculture
PUTRAJAYA
pul
##rical
##EM
finished
imported
##nered
aimed
Bumiputera
Bent
Seng
equal
little
##opping
toll
detained
##missions
screening
volunteers
Mult
Pres
Sah
educ
hour
transpar
##iversity
employers
platforms
enterprises
Dist
jun
rivers
##uries
amb
airc
preparation
##lusive
expertise
commodity
Com
Fel
zero
##EP
##istan
nearly
organised
Puteri
Fai
Jer
##ored
wholly
infected
politics
society
evening
multi
Senior
wish
##bo
ministers
basket
##bre
stream
sport
direction
disappoin
SH
fiscal
pat
##fl
concept
resume
Inst
offers
spending
recording
expenditure
##amework
syndic
CB
Car
##ANG
##eline
prob
accommod
healthy
materials
Baki
shuttlers
suggested
parliamentary
engineering
Fl
Tak
197
Chia
meetings
Revenue
Amin
Sur
Seg
page
##ingent
stead
##apers
RM20
emergency
injury
margin
Currently
More
PL
##asi
##anga
##ustain
stra
Communications
driving
MCO
Axi
definitely
aircraft
Qu
Wall
deep
ability
Tanah
activity
electrical
directly
Taiwan
Axiata
Han
search
wear
##rant
##pir
##hasni
notice
displ
noon
edition
automotive
curb
MFL
Fad
Food
Sime
##reg
try
attended
Borneo
Azizulhasni
Authority
Four
fifth
##MS
institution
##elling
Street
##pens
setting
owners
testing
joined
passed
causing
easier
reasons
Social
##aught
survey
Tenaga
Genting
kil
##atin
##str
##stream
##irl
shown
defending
capabilities
foreigners
everything
##itories
temple
Darby
relationship
Hann
##edia
Tanjung
representatives
raising
denied
Afzanizam
##usion
##echan
surpr
presented
standards
injuries
YoY
bread
variants
appropri
Airport
##ovac
contracts
##islative
Bl
Human
NR
VTL
categories
##wor
##igence
##argo
score
insurance
##18
##arian
consecutive
##oney
gener
##enses
arrival
By
Road
Ying
cal
ease
##ports
stability
proven
adult
pred
offences
crisis
Proper
student
electron
method
Imp
rather
##rian
##abling
##iously
numbers
postpon
strengthening
Pulau
Turk
PICKids
##itude
##igers
##igration
flooding
religious
oppon
empower
MoH
recommend
hus
raw
##lt
##imedia
alone
RM15
interests
currency
Unit
suspected
participants
occurred
defeated
innovation
Sinovac
Even
micro
##km
imports
discl
ruling
Immunisation
bot
unable
RM13
traditional
Orang
affordable
seized
Gu
##ny
##ateral
##role
##astic
secured
technologies
younger
straight
Bandar
Mid
Zul
##ran
##oves
##state
elected
arm
Singh
coron
focusing
encourage
amendments
Raja
figure
robust
MOH
Yee
batt
##load
##60
##agers
surround
cleaning
##tenance
Bint
Col
Kamar
Soh
task
##akim
exem
##apt
CovidNow
##assin
factor
Glove
preparations
Kenanga
Agr
Royal
Sustain
Women
ce
series
##AT
##pper
##avir
surv
studies
Zahid
Housing
Ukraine
##roleum
Yassin
esc
sufficient
nothing
flight
accord
created
basic
encouraging
Liu
Democratic
President
Mu
NG
##SP
##inary
##iling
stations
anti
maintenance
airline
strengthened
Zainal
aspir
shuttler
Sunway
Muar
Welfare
ey
hect
comply
comprehensive
attending
Spe
discussion
gains
jumped
HLIB
appropriate
husband
Max
MIC
bid
##gence
itself
accomp
organisation
Saudi
debut
integrity
400
Civil
##ds
##uten
##uties
wholes
clar
factory
significantly
administered
District
Agric
Sol
pm
##TP
proud
creating
rules
spokes
Sib
##ows
heard
##umi
manner
outstanding
overnight
RM11
Pert
handed
reaching
hotel
accelerate
certificates
Ever
Hang
girl
##EA
##wa
##areness
dismiss
provider
demon
awareness
adjust
globally
Out
Sud
fuel
pub
races
##FI
##rew
Many
launching
skills
dispos
coup
liquid
Hot
hike
mechan
rati
##ris
##70
##GE
##aria
stages
intell
##itten
effic
Forest
smok
hands
satis
Mok
Ras
comfort
worked
##ildren
scene
##eget
stands
aviation
breach
landslide
floodwaters
harm
sought
##dom
##erts
##action
advis
restaur
emphas
volat
Do
Hence
Haf
NST
##eff
##fiz
##off
##ental
##ocked
flights
regular
##lands
ways
Commissioner
brands
citizenship
postponed
##avirus
FA
TM
Ui
guarant
##che
places
flooded
proceedings
Business
Braz
Sil
##iy
##ense
##ilateral
##usam
league
nearby
shelter
Av
Loh
Leg
uns
communication
RM18
RM50
delivered
University
welcom
besides
Former
bodies
Multimedia
UiTM
##theless
star
Through
arg
RM500
limit
Water
bond
culture
##iec
##iman
finally
damage
##employ
PPV
Move
Q2
##sman
195
Aspir
surpass
tonne
procedure
Saifuddin
Ip
You
bill
##ashed
ans
exped
leaving
conclud
extension
disease
Organisation
Aidil
Prib
##ET
##eding
ones
##anta
owner
signing
extra
infectivity
Simp
village
complaints
Pribumi
duties
##cyc
##uo
projected
anim
plants
##ips
Convention
Khal
Article
entered
North
Putra
Rosmah
coronavirus
paper
tun
external
recru
abroad
depend
landf
reduction
findings
successfully
granted
evacuated
size
Non
catal
pace
##more
##irman
rein
monetary
MCA
route
pilgrims
Hus
Maz
OC
##OC
##amin
##akers
abuse
##itionally
Central
retailers
Employ
Oil
tiger
##Tr
##anj
thing
##ainage
involves
Rakuten
Tunku
steps
Brazil
##alan
##ites
isol
##emy
##angan
expenses
unemploy
spons
##icted
##aunder
directors
postp
targets
qualifying
Mentri
striker
telecommunications
attributed
##erson
Tha
interview
Stand
shows
Domestic
Most
##ferred
##imah
Int
flag
Str
takes
Jalil
continuing
edged
Menteri
Zakaria
Assistant
Ipoh
ded
sessions
tap
##uy
##uri
##iri
willing
sea
repay
supplies
14th
belong
gloves
request
extend
written
critic
connectivity
Si
Salle
gar
ve
wage
##uth
framework
Thai
##aza
##iveness
visiting
impacted
popular
youths
stores
Delt
Now
raid
##hy
formed
##utral
##eeper
deprec
urban
Brun
Sepang
Sadd
Sibu
Delta
watch
therefore
brings
resulting
running
clearly
provision
Perm
Wang
##ault
##iant
##ture
##ini
thr
proc
##dule
##erved
described
failure
involvement
guidelines
MO
cargo
nor
tabled
##ipped
worst
common
renewable
narrow
breadth
System
path
##har
##viously
Three
remark
Only
##aves
earned
release
consideration
excell
Tu
fer
##EC
##US
##omb
championship
governmental
RM14
Azmin
identify
reopen
European
determine
quickly
penalty
Dir
memorandum
##ipusam
cars
qualified
box
heading
digitalisation
Masidi
SEA
Thaipusam
Brunei
Ben
Ed
bed
##LA
##reme
Thong
GE15
mandatory
transactions
issuance
reserves
ratio
landfill
Salleh
Ast
Hy
HS
sources
tried
##kuk
##muddin
##OB
##asa
experts
##alling
decisions
Asli
12MP
##print
struck
Office
surrounding
postpone
Jen
##erl
##verse
##ahmi
##istries
chances
ups
Those
persons
settle
Annuar
efficiency
Hu
send
shall
Overall
FY2021
CEO
neighbour
Sudirman
Mak
san
##ximately
##GB
conven
##abil
##ands
##ander
spent
relax
endemic
produced
surged
dealers
##ORGE
GEORGE
commissioner
appreciated
##house
multiple
Peninsular
exemption
Ne
Pfiz
duo
fou
hall
veget
##ira
trig
incumb
positions
2012
##ooking
allows
listing
amendment
barrel
instructed
TOWN
Pfizer
Osman
lor
##yber
##vin
##itors
sto
bear
adults
twice
##reement
contributions
measure
changing
recognised
bail
##san
anything
delivering
masks
BWF
fatalities
alternative
hun
##Malaysia
##IS
##FC
##onom
##irth
##igar
##soon
incidents
outcome
consumption
RM30
Polic
subsid
##erring
closing
initially
specific
brib
fake
papers
##mas
##ares
##ains
##agn
##eree
exposure
##ously
Works
carrying
Karim
internet
drugs
##alymp
Uber
mild
rating
##onduct
sukuk
##emiconduct
##afa
equities
patient
gradually
incentives
800
ap
bab
egg
##hab
##PR
##DN
reit
outlet
weekly
Hishammuddin
##force
massive
Medical
Russia
demonstr
##oring
##ilient
Maloney
changed
##ctions
inched
supposed
##issions
anyone
##raf
attempt
contested
adoption
push
AG
Jeff
furn
tender
##KL
##perity
##accinated
serving
faces
hopeful
approximately
travelling
Emir
motiv
conviction
aspects
mental
awarded
subsequently
lodged
Faizal
Segamat
accordance
Ay
PD
Rio
vac
##ule
##IP
association
didn
implementing
metres
midf
Sea
temporarily
Arabia
walk
##aundering
Ha
Sk
ver
##eded
##ulate
true
seeds
resilient
spr
suspects
entering
Agong
protected
participate
suitable
Canada
Felda
rid
##gy
contacts
ministries
Project
Petaling
Paralymp
confirm
attractive
rollout
farmers
distributed
Profess
accompan
Agriculture
ven
beating
resc
client
Indian
actually
operator
transfer
generate
boats
heads
reading
engagement
arrange
landsc
recognition
CO
Ki
Never
Sever
Suk
Tangk
bi
beds
ties
##aution
##RB
##itime
##igrants
##ived
discount
Negeri
talks
fighting
Afric
Saddiq
Emer
ST
Val
vape
##asts
Their
applied
##resp
Prot
eventually
ill
resolve
Moto
deployed
disruptions
##igaret
dip
kind
mort
##iah
##emed
undergoing
15th
Agreement
Adam
##brid
##ilience
occup
Zaini
clubs
licence
motorcyc
retirement
wholesale
Idr
Lu
Sand
ir
piec
convers
RM16
Star
2013
gov
wins
discip
Nasir
innovative
IB
##keeper
##tt
##lom
##14
##vely
##graph
Spain
Supp
properties
arrest
proceeds
climbed
internal
IJ
Muk
Roh
birth
cast
cigaret
##ipping
##ariat
bridge
sharp
seeing
airlines
2009
Adv
lifted
determined
examination
crowd
Christmas
Property
##erloh
Policy
faster
##life
content
##ensus
##retariat
says
Secretary
questions
Temerloh
original
manufacturers
percentage
digit
Movement
PM
eld
confl
document
Additionally
Hafiz
Emirates
Nevertheless
bit
nature
pending
##fied
Ins
##gressive
accounted
checks
dealer
emerging
easily
Travel
Div
##21
##room
2011
##uki
chaired
sharing
Merican
mentioned
NC
##95
##ho
##ication
execut
usage
scr
reducing
achieving
expanding
landscape
Bad
bat
##ken
##dy
##iating
##lo
##ifa
interim
##ildlife
phot
PCR
##break
answer
fun
semiconduct
save
##ademy
intention
posit
soft
MAHB
analys
Openg
Judge
##board
efficient
Several
conflict
Sam
fal
flex
vess
##gent
##stood
neutral
Children
Abidin
##issner
Leissner
##isma
amounted
talent
Bera
witnesses
meaning
combined
Bentong
Custom
CGS
Sent
kept
pict
##know
##uing
##uations
##SS
##ON
##35
inside
align
constitution
##owers
##ush
repe
corr
considering
Investigation
Jel
Tal
der
opin
ask
conver
cloud
newly
##lined
##atorium
awa
structure
absence
fulfil
Krai
Green
Vol
kits
lose
rac
##gn
thous
##charg
substant
cornered
suspens
##inggi
regulatory
Meteor
negotiations
Amer
Gon
sentence
emissions
achievement
##place
keeping
MetMalaysia
thanks
Swee
mandate
Yusof
coupled
Division
Arif
Bangk
mos
##uild
##tered
clas
unli
John
consolid
coordin
RM42
competing
Junaidi
Finals
scoring
pleased
trigger
Ro
makes
##80
##lad
##menting
##hern
understood
##acco
goalkeeper
certainly
Operations
Hakim
Win
names
resist
peace
RM17
2010
30am
completely
turnover
SMK
Highway
Norza
emerged
Teo
appreciation
welcomed
Standard
Er
Ker
Leng
Wah
roo
wide
aside
##than
##enders
##ifying
spect
##manent
distancing
salary
returns
Junior
sustained
briefing
##venth
syndicate
Turkey
Ari
Und
ut
##OS
##DV
often
##ela
##ether
##ires
reform
prove
compar
196
overcome
Sarav
##aful
advice
bigger
options
##icians
villages
REIT
panel
prosecutor
summons
Strateg
incumbent
bound
easing
mist
thought
Chi
Char
mining
transl
acknow
ownership
moratorium
runners
sellers
closure
Previously
preparing
penins
provisions
welcome
highlighted
Meteorological
5pm
B40
Dam
Kas
Long
##uz
##tes
##hi
##asters
defam
Ent
Service
models
difference
necessities
utilities
frequ
Every
Gol
Ja
Press
Suh
Tim
email
option
##EN
inund
##irst
##ateful
contingent
monsoon
minim
coord
weekend
Cheah
excited
households
Setia
Kingdom
punish
##flow
concluded
Jin
Mei
School
Tze
mut
##SA
##Cs
exhib
##early
Inc
##ubble
stranded
developer
posts
collect
courts
Shafie
instructions
suspension
Categories
Sul
##ception
spike
Amend
finalised
MPs
conducting
clinic
##works
Hall
Zur
laundering
##ding
logging
Keny
meanwhile
Panjang
destination
hybrid
Ghani
anticipated
medallist
introduce
educational
Saravanan
Kul
Lie
Pant
lit
##uct
##FA
##urt
##sively
clients
submit
valid
calls
effectively
gradu
channel
elev
SHAH
Flood
9am
How
Hwang
Palm
htt
##90
theme
asking
##ulations
output
Sarawakians
middle
Sche
accepted
Tangkak
barg
##rigation
##atar
##ighth
resilience
leverage
outbreak
goes
transform
potentially
judicial
practice
questioned
destinations
delayed
Germany
ALAM
Bung
Culture
Pal
Toy
Wisma
fix
##jection
##stances
unf
highway
collection
modern
logo
talk
packages
Bakar
IPOH
Banglad
display
baby
Idris
Bangladesh
Her
dream
link
till
workforce
remo
economies
quit
restru
airport
##ielder
drag
explore
encouraged
constituencies
components
routes
hence
tank
##iaga
##greg
##amah
##otal
##ager
##awang
##ifest
RM25
hoping
processes
targeting
Intern
improvements
officially
Hamid
choose
diseases
published
disposal
Kep
Mom
Oth
Ron
##lusion
##irin
rejected
##ima
##orthern
adapt
##ourse
resum
actively
sixth
claiming
careful
putting
engage
Kenny
Shafee
circum
Commenting
Bangkok
700
Rum
vision
stim
stance
Malacc
sex
commence
joining
##tegr
realise
##ANTA
Sapura
##sych
procure
Malacca
##alang
tow
proact
disasters
2008
##being
struct
message
catalyst
hunting
Let
Member
Sessions
TV
cust
##aud
##eer
##orpor
throw
##ially
contro
floor
disruption
peak
grateful
pharm
entit
halal
rainfall
Immigration
MSME
Bul
Pel
SA
daugh
function
gap
tie
##oi
shift
Integr
##aching
supporters
winners
recoveries
competitions
representative
black
Dag
PBM
Ret
UK
milit
##jaya
##where
##oration
##etheless
##ivals
##antau
worry
Thina
150
evalu
locals
Maran
performances
Arts
contributing
trees
lawyers
learnt
ticket
cigarettes
Thinaah
JP
Lai
Q1
Rantau
pain
complex
relig
winner
##azet
stopped
Sandakan
Amendment
Fifa
Jo
Kison
Ling
Laz
wing
##roy
##osing
shopping
##oint
tweet
branch
capable
campaigning
emergence
decrease
gradual
pleaded
Uzir
junior
opponents
Sustainable
hectares
Pertuan
Othman
Kisona
hover
##rem
##elih
##isted
pled
##ariff
investor
investing
records
France
premium
establishment
Goldman
dismissed
inundated
Toyota
Hou
Racing
caught
##vals
##22
worried
performing
movements
offerings
Shahr
alongside
weakness
Science
Economy
resignation
Territories
volatility
Undi
Momota
##elihood
JKM
Meet
##atri
##atever
##ley
prol
sud
sens
##onding
enhanced
Bahar
Furthermore
bottom
Emergency
Lok
Offic
Yi
cited
fem
##RM
impair
manifest
else
relatively
poss
Forces
MA63
Omar
Harun
Moving
participating
reopened
Bumi
Mazlan
6pm
Action
Hod
##power
##In
height
ant
permanent
slid
entertain
Musang
PBB
adopt
channelled
uncertainties
kilomet
semiconductor
Bant
Haz
Kal
Kaw
Pearly
catch
eth
psych
##ald
##uris
##illance
permission
relation
posting
voter
contracted
lockdowns
badly
Izz
Prior
Mustafa
liquidity
Hotel
founder
sudden
First
lines
##25
forces
island
constant
Stat
##egu
housed
demands
Armed
sharehold
injured
weakened
consistent
DB
Pay
cater
din
millions
accident
teamm
profits
block
maintaining
Zahar
##shore
Irrigation
mitig
bargain
Bat
CC
Gan
##ring
##IR
##icking
visited
dipped
Prevention
hosts
classes
seriously
cancer
update
##vertise
Mustap
dissolution
medallists
honour
Khalid
repayment
Kenyalang
Hodak
1H
Ap
Mad
Nations
Pos
San
eighth
fis
rule
##na
##ja
##itage
story
plain
##erving
actual
coff
locally
Drainage
Pros
sole
guard
priorit
drawn
ranking
celebrate
SPAC
battle
Del
GRS
Ra
Southern
Tang
Yah
fle
mix
tact
##ils
##eck
Alor
deleg
grand
holds
lowest
PKRC
villagers
Compan
channels
besar
Express
smoothly
Bet
Gua
Pand
wro
##DI
words
upload
commit
conservation
requested
Amar
corresp
authority
explain
BATC
productivity
PBK
appeared
histor
##fortun
associations
NRP
wrote
Im
Liew
RF
jab
##99
##rade
##ayu
##amer
seventh
usually
servants
KLIA
smugg
counsel
feature
identity
realised
couple
Ghaz
deposits
midfielder
elder
positively
circumstances
Cel
Kean
Kemp
##cher
##BS
##wise
##orb
university
##quir
Shams
Maritime
backed
missed
dangerous
updated
boys
fishing
mitigation
thousands
Cooper
Five
Hond
Kok
rally
table
tier
##jun
##GP
##aini
deg
resumption
assign
10am
consensus
transmission
calling
processing
finding
withdrawal
types
intelligence
sponsors
resistance
Liek
Don
Ma
Power
UMW
bubble
wider
##my
##RT
##HEP
##ster
##ections
adher
trillion
Any
signs
drivers
referring
regardless
storage
Paula
Instead
steady
AA
Cher
Mag
Taw
Yap
gear
##usi
execution
Innov
clash
Shuk
RM200
collected
sites
Agro
##sibilities
Club
ASP
telecommunication
upgrade
departments
mobilised
##risonment
Aviation
eggs
accompanied
Africa
##eguard
Ee
PA
Pang
dates
ult
##kers
##odu
##iser
wealth
adhere
inclusive
wors
imprisonment
numer
Perodu
restore
looks
safeguard
SMTr
promoting
marked
grounds
Korean
responding
cards
window
Yusoff
transparency
Middle
Nonetheless
Perodua
SMTrack
IM
Jord
Up
##equ
##GV
concess
##estyle
complement
ship
unity
performed
looked
FY20
##TAR
midnight
Muhamad
comprised
Masters
estimates
rebuild
schedule
cancelled
KPDN
certificate
Padungan
feedback
reiterated
gazet
##ground
##whel
##icing
##rey
suc
unique
captain
worldwide
grass
##aida
handle
witnessed
recommended
transaction
Mora
spokesman
mechanism
guarantee
unemployment
lorry
false
procurement
KPDNHEP
Camp
GO
Mur
Tiong
Yu
domin
pip
ramp
##mal
##ww
##NM
##alf
##asin
##iled
##ouch
resort
flash
##ighted
wellbeing
generated
whereby
standing
priv
investigate
Paris
Emb
##orney
keirin
debate
automatic
subsidiaries
indicated
doctor
opinion
Ariff
restruct
female
Jordan
succeed
AM
ATA
Fird
Kai
See
mur
male
sn
www
##IV
##erosp
##ayang
whom
controlled
prosperity
purchases
CPI
prayers
Aspirasi
Director
riders
Professor
Entreprene
##erospace
Hin
Mun
pill
tack
##ynam
##DC
touch
##aken
##onged
adoles
plastic
reck
totalling
prompt
Musl
indicators
clinics
timely
cycling
Academy
military
Meeting
APM
Hash
wis
##haps
##bacco
##eria
tobacco
##icine
##eless
##uted
relating
Asked
##ext
usual
mys
producing
Att
socio
buildings
defendant
hotels
suffering
Media
resolved
figures
MRT
Maxis
Simpang
Ke
Lip
Tuan
Ut
po
veter
##akh
acces
##urring
##rench
RM24
acad
carri
Conf
requiring
forms
campaigns
blue
speaking
Hamidin
tracking
citizen
##liminary
virtually
celebrations
House
reflected
Justice
Smart
furniture
elevated
numerous
Rahim
Sum
fee
love
##gi
##RI
##aruddin
trail
##lications
scen
capture
##ront
Price
placement
##tiff
Engine
Tengah
introduction
IJN
Zuraida
Count
Sani
Touch
bourse
sac
##illah
##utical
construct
aggreg
Insp
securities
120
fundament
interested
tourist
##beat
Merah
exceeding
Jerant
Zulk
Legislative
DN
Term
killed
##jit
##KN
##ino
##atically
admissions
Head
##aceutical
strongly
extrem
Airlines
covered
Radzi
NGOs
restaurant
recruitment
plaintiff
myself
Jerantut
Has
cities
stret
##imin
congest
overwhel
investigating
entr
equipped
assemblymen
Brent
##elsen
warned
##ycling
Musa
Regional
Australian
petroleum
roof
https
daughter
Honda
Fahmi
Hig
Hend
Kian
Ri
ep
##ES
##erted
proof
franch
##andem
##alled
Coast
unpr
##epend
justice
equival
handling
keen
closer
struggling
depreciated
##Invest
Amp
Koh
Miri
##fect
##arn
stabil
##igen
##berang
##anku
##ques
##avi
160
politicians
Peter
Chee
##sibly
inflow
Seberang
defender
agricultural
Halim
evacuate
recommendations
satisfied
comfortable
OCM
outlets
corresponding
Kempas
Muslims
Found
Noh
##orp
##angu
##ops
##alls
Thus
##ubb
RM300
##astern
criteria
mothers
falling
colle
exceeded
proactive
grassro
cabinet
dur
mus
sad
##andal
##ialog
ordin
##ellow
Chang
recovering
profession
paying
##forcement
Saar
devices
picked
preceding
lawsuit
objective
rescued
Customs
RFID
Hashim
DID
Mach
PR
SAR
maid
vig
vital
##ux
##person
##vaccinated
##65
##itical
##outs
samp
trim
##odium
outp
consent
Azhar
Marc
expecting
lawm
urge
broke
##inson
begun
occas
Consult
Metal
hyd
marri
undertake
Tuanku
Jeffrey
entitled
Undi18
Jos
Jho
Ree
tech
##cri
##oned
reloc
increases
##assy
crash
facts
##uests
counts
larger
largely
specialist
logged
failing
emerge
MCMC
lifestyle
trip
origin
manufacturer
probably
analysis
acknowled
MSMEs
Innovation
concession
Firdaus
Gas
Hart
Hadi
Rod
awards
master
##mur
##Sk
minor
creation
continuously
adopted
primarily
Axelsen
uncertainty
borrowers
calend
electronics
grassroots
Dise
French
Siv
Tinggi
Will
rental
##chers
##iam
##ta
##GA
##KK
##anding
offices
discharg
acting
interstate
transferred
RM21
fees
explan
decliners
promotion
Warrants
packaging
diversif
conversion
Golok
Internet
Dagang
Upon
bt
hab
ow
tigers
##irect
##imate
##ulus
##sein
inten
communications
accus
image
##aiman
protoc
fellow
mobility
jointly
thanked
settlement
finishing
BWI
embark
Silva
triggered
Scheme
Kepong
##vertisement
equivalent
BID
Care
PS
SIC
rak
southern
tandem
ward
##book
unvaccinated
fined
Independent
assured
text
reporting
##ressive
##assad
affecting
Ang
RM40
experiencing
Executive
342
titles
Criminal
Subang
meantime
Statistics
elderly
Reezal
Dat
Kent
Ran
Raya
Tax
Us
West
Yinson
cop
dil
kit
##do
##iat
instru
##akat
adequ
Cools
##heng
teen
user
door
MAF
250
availability
swept
storey
doctors
disappointed
neighbouring
GL
Hil
Sup
bilateral
ruled
##Tech
##75
##ales
##stan
##amy
const
##opol
enabling
estate
revive
Second
statistics
declining
enhancing
Roslan
##trend
package
physically
designed
declar
Matrade
Expo
err
surpassed
classified
Sulaiman
##urisd
Foundation
ordinary
4G
Bur
Boost
FGV
KM
Kum
Lo
Mark
Yes
citing
dynam
guests
jurisd
sle
##la
##jan
##icated
##uran
##imb
##ulner
reply
##liers
Enforcement
extensive
covering
damages
automation
Seti
principal
milest
substantial
##ANTAN
Ghazali
IT
KNM
Mong
Pei
Qatar
Tigers
nations
rider
##rd
##htar
##bek
##orter
rehab
exist
sum
incorpor
indeed
indirect
prefer
firmer
RM19
Once
secondary
values
RM33
revised
exciting
behalf
difficulties
Complex
purposes
Religious
festival
livelihood
Hussein
tapering
manifesto
uploaded
GOF
Award
bought
cultural
lane
rivals
sides
##85
##rin
##uc
##ulating
##osen
##fficking
##ajah
remove
##oke
salaries
voice
rounds
occur
addressing
struggle
Bintulu
diplom
Kawah
restructuring
trimmed
calendar
Given
Guan
OPR
Total
cooking
sister
tell
##map
##erating
##verages
##usted
##ighter
reput
decades
securing
ends
##rena
wheel
discover
Banking
persist
feet
2007
motion
utilised
MNOs
gathering
Speaking
Datin
TA
lying
vulner
wood
plays
officiating
retained
Common
visits
boosters
foundation
shortages
addressed
requirement
convicted
organisers
immigrants
elements
devot
Farid
Padang
festive
influence
wearing
surprise
tune
prolonged
coffee
scenari
God
MT
UN
Yay
boun
gate
luck
rat
rang
##gment
##ware
whatever
##oss
manpower
underw
ourselves
##izal
sheet
armed
capability
profitability
collaborate
favourable
Moktar
peninsula
constrain
Yayasan
Fern
Harian
fit
##kg
##to
##van
##ining
##ederation
##itr
fort
style
##emen
##oph
truly
offset
sense
boosted
phone
promised
MoF
doesn
amidst
respondents
guidance
pull
PLUS
sanit
rehabilit
Alex
Bag
Kon
MS
Nar
Post
SPM
kav
lay
pump
rail
tabling
##ull
chosen
##aping
1963
Information
remember
submer
RM22
##afar
nearest
crew
legislative
athlete
lift
##quare
Before
MMEA
Network
ideas
Lat
rum
##iber
##abbed
##unt
contained
unl
underpin
Plant
quarantined
selection
prospect
audit
features
Uzbek
idea
methods
venue
Mustapa
academic
CT
Fais
Sant
Teb
langu
rely
ware
##ica
##ayan
##ros
##mented
stadium
prohib
weigh
upset
spend
independ
appell
reli
Assoc
Commod
standings
requires
refer
hospitalised
Elect
comprom
comprises
naturalised
IPO
feeling
detailed
Motor
pushing
surveillance
##istrate
principles
Amirudin
religion
Uzbekistan
End
Hasan
Lond
Son
bell
input
##ote
proved
Malayan
##udu
##overeign
seem
elector
##assment
announcing
trader
simp
reasonable
sugar
appointments
accelerated
combination
departure
aspirations
pieces
picture
Lipis
vigil
rakyat
Kit
Kap
Kuan
Lemb
Pers
mass
vast
##iors
stip
preliminary
suppliers
Stud
science
##assim
##avy
arising
crime
prevention
vaccinations
Anth
someone
experiences
breaking
infectious
Highlands
English
reality
530
automatically
pairs
Infect
bulk
vegetables
REITs
Pantai
Faisal
simply
Geor
Hai
Lark
SER
Treat
cod
dated
fill
northern
rad
##KA
##icop
##olved
reward
comments
fruit
##andi
exit
compens
trou
env
peers
visibility
parent
temper
forecasts
Karak
analysts
Buy
Saiful
installation
CBP
Speaker
dedicated
sexual
Larkin
Bir
Ged
Leb
Real
##anah
##aming
##uster
shock
seed
upward
##ifically
repres
spur
worker
retain
rede
Finland
holders
talents
behavi
##angsar
trends
delays
Build
unders
territory
pursue
Yeoh
smoking
animal
comparison
London
represents
AE
Aiman
CS
FM
Hel
MU
Pem
Ugg
Vacc
Zam
pa
sib
sovereign
##cents
##OI
##EB
##ching
impressive
medals
##iants
##afiq
grat
showc
feels
expectation
Advertisement
judgment
partnerships
licens
enterprise
THE
replacement
shops
accommodate
starts
expedite
PDRM
Mukh
Inspector
submerged
Uggah
Mart
Nest
Nanta
Rex
Vel
powers
trop
##adic
seems
enabled
##anches
communic
##ikh
Lead
refused
520
smaller
administr
connection
sentiments
destroy
Kemaman
Employees
Advis
adolescents
marriage
##Skip
AdvertisementSkip
Egy
Hari
Pw
Rural
Such
Tek
nil
section
sound
##WP
storm
##ahan
perfect
##udong
shr
workplace
providers
depending
RM23
##ressed
sentenced
taxes
learned
videos
threats
Pulai
upgrading
##anjir
Brazilian
graduates
Saarani
explanation
kavadi
4pm
Domin
Jing
Kamal
Krian
Me
Mood
Pau
Rid
Yun
Young
phen
##hus
##45
##inth
##ortium
Ste
11th
scandal
persp
phases
referee
##aimi
##ropri
formation
Ordin
acquire
machine
superv
mortem
Celcom
Engineering
aggregate
Moody
phenomen
Bio
FO
Kassim
Mans
burn
caution
ll
pond
podium
ride
##tor
##opp
##body
##xy
##17
##13
##orough
##itz
##icit
##ays
##esty
##ushed
##overty
##eph
Chai
##eka
Construction
surg
##ression
referred
Petroleum
urgent
hospitalisation
arriving
premier
stayed
staying
estimate
skilled
##appropri
teacher
commenting
resigned
marginally
eye
Jeli
custody
Raub
Gedong
ABM
Drug
Jaz
Yean
gives
pool
##tech
##UN
##reas
flo
##emban
annually
handing
doubt
proposals
Ramli
appearance
excellence
DBKL
degree
Mongol
Infectious
Cyber
Dudong
Gem
Huss
Having
Kad
Kaz
MY
Nizam
YTL
cry
gol
##rum
##iar
##uzi
##48
##veraging
agents
otherwise
##cont
##ega
##ategor
##ensity
##anned
rains
marks
mask
Safawi
eyes
Lazada
shareholder
teammates
GDV
Gajah
Id
Io
Kg
Lin
Sher
fu
file
tariff
##97
##kh
##kely
##uters
##enec
##anim
##ala
Malays
##agram
compli
adverse
worse
helicop
##ittees
carries
Enter
cleared
mode
breath
donations
thinking
symptomatic
updates
Territory
transparent
disclosed
argued
belonging
Paralympic
unlikely
murder
congestion
vigilant
9M
Lau
##ded
thorough
##anda
partially
##airi
##ikes
networks
Shahrul
responsibilities
protest
embr
GE14
Golden
wrongdo
ceiling
narrowed
milestone
devotees
Rexy
GP
Hop
Jag
Lah
SDP
Vent
freed
sq
sending
##rated
##aith
##under
##gen
##jing
##03
##NS
##erning
##inder
##acter
consequ
##estock
regions
annum
Mara
knew
downstream
assisted
Activ
turning
##intendent
Superm
arrive
spreading
specifically
observed
pilot
holidays
merch
David
rapidly
electronic
Kazakh
Romp
fever
jet
poverty
roles
yellow
##nic
##ym
##heries
##aluation
##enty
##isk
asy
conced
advert
trained
shif
upt
overt
depth
RM27
bookings
Autom
pushed
ALOR
converted
Strategic
constantly
Entrepreneur
Attorney
jurisdiction
Rompin
Bali
Eco
Sze
bol
hum
op
##hood
##iles
##urer
haw
deemed
##umin
shipping
unless
grown
##rau
prevail
Union
safely
organising
contractors
moderate
doubled
blood
achievements
cooperate
edge
species
enforced
mentri
journal
reflect
Jaafar
coordination
fisher
franchise
Ampang
professionals
Diseases
vulnerable
Fei
Tas
##cot
##mir
##hill
##Bank
##IL
##UL
##etaker
stun
beverages
##perform
univers
offshore
outlined
deciding
##arik
##ogs
backl
downside
obl
membership
guide
syner
speak
accordingly
##mptomatic
immunity
devast
type
merely
Instagram
aspiration
Makmur
entertainment
acknowledged
Treatment
Gam
Lati
Trop
Yii
aerospace
ninth
tas
wall
##rid
##KS
##tery
##igations
reun
##usan
intent
##wealth
default
sets
Anuar
grants
takaful
Shahid
promin
Mahm
warrants
Gerakan
timber
disrupted
undertaken
widely
excellent
dinner
Ranau
behaviour
Due
Dung
Ist
Mod
RC
Rubber
Tiger
hire
merg
sem
swe
tally
##coh
##tles
##zen
##vey
onwards
priced
branches
deficit
helps
profile
slated
format
accounting
passing
dealing
firms
simple
Bahrain
Report
Mokhtar
criticism
remarks
mosque
resumed
phenomenon
AP
Bei
HR
Jak
Kiong
Master
Qi
Tee
bon
ge
mount
none
wildlife
##ios
##zam
##aring
##mental
prud
operates
trafficking
contributors
heavily
Similar
designated
deployment
motorists
Info
##efully
ferry
Supply
mitigate
Cheras
Higher
Commonwealth
Egypt
Mongolia
IoT
Kazakhstan
asymptomatic
AI
Bawang
Ele
Gun
TP
cyber
hund
zone
##rim
##33
##ENG
##itation
##urb
react
##iesel
##istle
shape
sees
reserve
lease
unanim
Chair
KUANTAN
intended
118
retired
heritage
background
producer
initiated
properly
beneficial
Superintendent
directive
fields
switch
settled
##ocracy
margins
landslides
erased
yields
Fadh
PPVs
mistakes
Retail
weaknesses
impairment
ethnic
Anthony
8am
AT
Bas
Circ
Hon
Ting
Test
bless
rot
rice
##market
##uart
##lings
RM0
prison
upstream
Stuart
operated
follows
advoc
maybe
Managing
extent
metre
contractor
importantly
happens
happening
##ourses
donation
negl
warrant
fielded
broadband
recognise
winds
enjoyed
tenure
bribes
flexibility
vessel
kilometres
adequate
reputation
Hopefully
Beijing
Coll
Data
Lik
Present
ham
kg
mig
racing
##55
##deka
tools
##isers
##agues
##engah
intends
committing
dece
##ogether
116
scope
Ministers
directed
evaluation
Perd
##athan
##ificial
solve
##iversary
2001
presentation
Merdeka
certified
plantations
Socso
Cred
RTK
ambassad
institutional
Tawau
wishes
sacrif
##cohol
Best
Farm
Lad
Poh
PNB
Quarant
Wangsa
fold
##yt
##TN
##ionate
##ician
##reen
##olar
alcohol
congr
##bery
uphold
disb
Station
##avil
retention
article
distance
RM26
severely
AmBank
Manufact
contributor
knows
Exc
friendlies
renewed
widened
pulled
relaxation
Izzuddin
commitments
##fortunately
constraints
George
Jon
Lun
NP
Natural
categor
fly
load
##cked
##oes
##hou
##qman
##Corp
inquir
##icious
reign
perked
sup
pricing
impose
secretariat
Sha
114
##aug
attitude
Marudu
trapped
producers
Respon
restored
concerning
##inta
Azizah
Temple
principle
restaurants
Officer
fleet
extremely
Dungun
Quarantine
900
CA
SWN
era
faith
lux
pup
square
##mis
##ograph
##BA
##34
##27
##wind
##DM
##around
##roc
##ami
convert
seam
bright
publicly
Khan
Training
Supt
chemicals
controls
lifting
worksh
##MCO
holistic
Halal
incentive
isolation
underpinned
Mansor
Fau
Ka
PTP
Siong
mud
##96
##mb
##waran
##sian
##using
2050
aggr
invested
MARC
testim
collaps
##itingan
turnout
divisions
titled
increasingly
chains
connected
misappropri
anticipate
##ramani
footprint
cycle
Menengah
postponement
demonstrated
Expressway
overwhelming
scenario
stipulated
Supermax
Ba
Link
PT
SJ
Well
cult
mac
##92
##uter
##32
##GM
##anthan
##sial
noting
admission
##umes
aggressive
##ifah
Thank
##eping
Indah
newsp
RM150
10th
RM28
caretaker
225
assisting
effectiveness
metal
launches
policemen
guided
Mahadi
Investors
judges
ACP
Parliamentary
Seremban
Teoh
obtaining
appreciate
livestock
escal
spokesperson
repeat
stimulus
Zulkif
declaration
language
FOMC
Shahidan
##avilion
seamless
3pm
Great
Giants
Mos
af
crop
drow
vou
##yah
rej
chari
deals
inclusion
##aped
upside
unc
possibly
seconds
downp
Manjun
factories
Secretariat
RM60
emot
integration
Cluster
Teluk
cancell
introducing
strictly
commodities
disappoint
COV
Luqman
racial
##cription
Burung
Latiff
Kub
Mc
Mut
Members
Naf
Rapid
Tong
fro
hur
pitch
tree
##apped
##cast
##chen
##ucks
##gar
##EAN
##inter
##ality
##ande
##une
trick
##iaison
spl
##exp
About
busy
evol
Provid
risen
drink
cheaper
contraction
turnaround
##ambers
##versy
swim
questioning
##iciary
farming
installed
subsequent
borrowings
Blue
opponent
army
Astro
motorcycle
awaiting
controversy
CN
Eastern
IS
Kun
Kitingan
Lam
Lub
Sams
Task
ayat
tens
##BC
##eted
##siah
##owed
incurred
decade
posed
180
Progressive
Art
breached
Kuwa
Billah
beaten
kicked
issuing
objectives
featured
bonds
animals
north
convenience
functions
spectrum
dragged
Yahya
Gamuda
ayatuddin
Back
Faz
Pass
Rom
Ref
joy
tide
##nings
##cill
##hak
##11
inaug
##itable
forget
##utin
##unch
unve
Week
affairs
anniversary
advise
MARA
RM35
headed
organise
authorised
boarding
covers
convent
centralised
mentally
withdrawals
Sapian
penalties
associated
tickets
Yeow
Rasid
Paralympics
meaningful
reforms
maiden
Hartal
Ordinance
Istana
Dig
FF
Lot
MD
Nag
NRC
Treas
Vill
filled
hes
pig
##las
##ered
##isa
##idemi
##amed
reject
chose
invited
spaces
appar
stringent
preferred
mega
assurance
teaching
scient
serves
leads
severity
amongst
knock
downward
situations
reference
##ashing
readiness
promises
Whats
observing
Paul
garnered
pharmaceutical
heightened
protocols
discovered
perspective
Fis
JB
JV
Line
Qual
Six
Xuan
banned
drew
eager
fost
fitness
nav
##mitting
##list
##SI
##OL
##19
##edented
##ominated
forests
white
##osa
ang
clot
##ureau
##ansara
##ogen
secret
110
detection
competit
Plaza
2006
broker
temp
capitalise
engaged
smallholders
monitored
acquired
practition
proceeding
1996
optimism
accelerating
cautiously
Intan
consolidation
utility
Damansara
Integrated
Bantuan
appellant
siblings
destroyed
Advisory
bonus
Kuwait
Cong
Nan
Nurs
WH
Wildlife
loyal
wages
##mat
##ecedented
stating
##iga
Then
frust
fraud
exposed
##awa
Though
committees
couldn
arts
gets
Kelly
##ashi
hostel
marine
ventilator
Sahr
Astra
Huat
vegetable
apolog
Kiara
vessels
aligned
accessible
stretch
unprecedented
luxury
Fauzi
COVID
Berg
SIB
Veter
##rate
##fers
##yl
##hatin
##PT
##inals
stamp
##oto
##ules
Mall
invent
soil
allowance
activated
Play
airports
2005
employee
identification
writing
purchasing
Series
ski
Why
licences
celebrated
favourites
Prihatin
attacks
steel
Relief
kilo
##iyuddin
mutual
Shahril
samples
gratitude
Lahad
pupils
BE
BMW
Camer
HSB
Ming
PV
Pes
Say
TER
Vict
divers
fat
flying
ign
##inf
##inting
inoc
##itarian
##econom
saving
reaction
projection
##rie
perhaps
debr
prest
##aste
leveraging
remanded
soared
##ibre
##rave
Unity
slot
Plus
FY23
midst
telcos
preparedness
schemes
observe
establishing
Salah
precaution
##ordinary
rebounded
##ombak
Valeree
scrutin
towers
electoral
AEFI
compliant
##uminium
Credit
debris
Dou
Kanger
Pavilion
Vik
dan
lect
row
royal
sour
##kan
##39
##44
##era
##anes
##asamy
fores
conduc
##uls
##osite
2000
shocked
##ryl
194
##endi
word
unn
Chambers
casual
intervention
regain
##ishing
##iana
quant
MAS
technological
deliber
entities
thirds
promise
promising
Syafiq
instance
comprise
utilise
##empts
responded
Society
eleph
Sales
milk
ventilators
accommodation
Kamarul
bribe
arrangement
evaluate
tackle
Country
rehabilitation
rumours
##eneca
fishermen
collapsed
##expected
Bergson
Cameron
Bi
BS
Equ
Na
NCI
Siew
Voon
##88
##bal
##jo
##ila
exempt
traj
resear
aband
##ectory
remand
##estern
Allah
attempts
##iananthan
Again
exploring
collaborations
agreements
version
Satiananthan
##plus
appealed
Labour
replaced
Class
please
spotted
##eograph
freight
Acryl
Daniel
MISC
recommendation
survive
adviser
MOE
championships
AGC
constitutional
summonses
TVET
delegates
Enterpr
chariot
trajectory
Dut
Dick
Free
Gombak
IN
JA
Jasin
Rh
Zeal
batch
ports
sinc
##dan
##uff
##haran
##ede
##essively
##idy
##ico
onto
##unan
##apse
190
unexpected
Champions
##venues
disag
##conic
107
developers
##oys
##azanah
entity
youngest
allocations
Hamidi
ACAB
defeating
aspect
Nurul
observation
Telek
ASEAN
surely
pilgrim
Nikk
township
harvest
predict
Forestry
illness
Rohana
Buloh
Magistrate
pipeline
Ariffin
Nestle
freedom
prominent
AstraZ
HSBC
Zealand
Hoo
PSC
Tab
##rig
##uous
##yr
##bar
##31
##UM
##69
##WD
##ora
##uru
##urate
##utory
whistle
##riz
##eback
Johan
dependent
studying
oils
Trust
Mydin
charging
portion
telev
trem
Recently
Boon
allegation
MMA
SDMC
Menara
harassment
displaced
Sustainability
NGO
Solar
advisory
fertil
subsidy
American
structural
Companies
jabs
gazetted
reckon
Commodities
temperature
wrongdoing
universities
reigning
Zulkifli
inaugural
conventional
Digi
prestigious
Telekom
Aw
Cer
CIT
Gud
Pack
Rina
Sid
labor
pave
rent
riding
tend
##rome
##von
##28
##KT
##arman
sake
##lee
##lease
prone
##umber
truth
uptrend
##ellite
fluct
indices
intend
supplier
Azri
terminal
233
slower
pressures
hospitality
Exchange
BAT
ASNB
slowly
##istrar
prayer
Grand
character
Aminuddin
criticised
Hao
sprint
confirmation
Sentosa
Chieng
psychological
habit
intensif
PwD
hesit
AstraZeneca
Awards
Cert
IRB
Nancy
Said
fought
lending
pent
rubb
##reds
##hsan
##LO
##arr
ingr
##isure
##achel
seeded
##apter
##order
pregn
supports
doors
earning
brid
Commercial
acute
valuations
glad
democracy
discovery
surplus
corner
formerly
focuses
blame
powered
Saad
##ticles
encoun
570
Contin
distribute
Balai
diverse
stepped
bullying
Belg
Environmental
fears
artificial
pattern
regularly
Lokman
Sanusi
stabilise
Marcus
error
Bagan
Similarly
Perdana
categorised
Provident
Hartalega
clothes
Aj
Adn
Clim
Di
DO
Hok
Hian
PDP
Wun
gaining
rich
vend
wed
##rad
##ONG
##72
##jana
##GAN
##itis
##ilst
##ilher
unt
##ipal
repairs
##uaran
spear
spark
##engk
overflow
relatives
acted
respir
medicine
Commerce
completing
Pahat
broken
roadmap
Centres
Pharman
Monetary
injunction
promoted
books
accepting
Aarhus
Swiss
##ominium
Halimah
deposit
Maju
consultant
pursuing
patrol
syndicates
Guilher
watching
motivated
PMI
CTOS
surgery
supreme
Pesaka
Pharmaniaga
Guilherme
BIMB
DUN
Fut
JK
Lane
Mers
Pat
Ray
Tah
Tamb
TSG
Xing
courses
native
rushed
##87
##cy
##iro
##iia
##12
##urch
##lear
anch
##agles
compatri
plus
enables
spots
intensity
Ash
interp
154
affili
##ronic
acres
quota
familiar
autonom
RM400
##linary
Prima
concent
eventual
urging
registering
Assan
telco
climb
##autical
thankful
aiming
struggled
Lawy
containment
tightening
argu
isolated
arrangements
Protection
repeated
antib
independence
compensation
testimony
Treasury
TERENG
Salahuddin
Dickson
Gudang
Fort
IR
LNG
Lint
Looking
PE
Seb
Tuaran
Yak
nerv
ro
rig
sch
##aq
##iences
##ye
##pts
##bl
##zhou
##jamin
tower
##icana
##aked
Initial
outing
assemb
depends
Khazanah
ceramah
Shevon
bloc
statutory
##beit
Desa
certification
appears
rooms
Small
MELA
extraordinary
unemployed
Benjamin
hopefully
Erics
Wahid
defamatory
possession
hydro
Latif
Tropicana
PTPTN
frozen
##GANU
TERENGGANU
MELAKA
Fari
Key
Kev
Nex
Tech
TFC
dry
diving
ling
nic
sun
##lif
##bin
##64
##alam
##itan
albeit
##bert
replied
spill
underway
overs
##encana
interact
Shan
117
##afe
##ukai
##ifications
surf
older
delighted
##roll
chairing
headline
procession
extending
applicants
2004
film
Besut
exclusive
premature
swift
nominated
fallen
married
violence
SDG
colour
fatality
Kamaruddin
clarified
removed
pledged
gearing
ultimately
Hindu
veteran
##giene
accusations
dynamic
##itrile
bolster
Circuit
congrat
macro
cancellation
respiratory
KKM
TIV
da
wild
##nial
##atched
topped
##aru
##sters
convey
comeback
##ivatives
haven
shoot
recre
2026
enl
agent
resur
decent
111
substit
##othing
belief
220
couns
Chew
deliveries
pollution
symb
Norh
##ieties
strike
obser
Britain
screen
##mingham
influenced
charter
probable
Takiyuddin
girls
surpassing
Protect
occupancy
flexible
historical
duration
Kento
Soniia
bellw
Birmingham
Nikkei
Mersing
Ericsson
Kevin
Cit
Heng
Mac
Matt
Memorandum
NE
Ops
Rizal
Tru
UM
UOB
ori
que
zones
##App
##67
##wi
##akini
weight
sequ
##iful
##actment
##ails
fintech
106
##iza
themed
confer
Penh
advancing
restoration
creative
Checks
Alias
select
drawing
farms
attendance
petrol
spoke
Majesty
container
mobilise
NSTP
MotoGP
minimal
snap
carrier
Joseph
opined
disappointment
JBPM
Nursh
kilogram
Viktor
Climate
bellwether
Bec
Cre
Jul
Jamin
Kaj
Mich
M40
Ulu
Wak
ace
amp
hom
kid
##81
##ni
##nom
##nown
##di
##iance
##26
##DE
##reach
##irmed
stick
beach
revers
Malaysiakini
excess
receded
containing
resource
allies
partly
governing
consisting
consortium
Ishak
##avit
capt
302
boosting
testament
generally
landed
ideal
employed
Phnom
Mahk
engaging
420
purchased
Understanding
progressive
Transformation
viable
combat
deny
miscon
entirely
##houses
Traffic
generating
smokers
emphasised
settlements
STB
unlike
prioritise
crypt
prudent
Chairman
Nafuzi
competitiveness
foresee
ingred
Adnan
Ge
Ping
PET
Rights
Sulu
Zar
dialog
fab
piv
pact
##dang
##sen
##uated
##zed
##jid
##erb
##enan
probe
##abu
permitted
Sham
##umped
crashed
Proced
RM210
130
valu
detention
Prai
collecting
##ashion
Parit
formal
Admin
capitalisation
syn
PublicInvest
##ultane
viewed
clearing
fielding
Senheng
attracting
Rev
hosting
1Malaysia
determination
immunisation
hygiene
favourite
Dayak
absorb
Subramani
Parks
Daud
emphasis
execute
##uzz
Prosecut
Terminal
hundreds
brokerage
##economic
Against
Because
Bangsa
Lal
Pi
Sik
biod
ft
rect
tied
west
##mits
##yn
##oa
##77
##29
##He
##asia
thin
stem
beverage
##lege
##aina
chip
chips
complications
##umu
placing
spous
abide
outflow
##liances
fired
remote
Shop
153
Azumu
crimes
170
democratic
activist
wanting
councill
checked
protecting
##unicipal
blank
positioned
write
regards
Affendi
1990
Razali
declare
conditional
compounds
EVs
Takaful
surprised
venues
piece
coordinate
Roz
peaceful
Kulim
controver
Hendra
MUDA
advertising
merger
navig
##ulsory
television
rubbish
oriented
Mahkota
ATM
Good
Reng
Tom
cul
wond
##rative
##47
##EL
##hew
thri
stre
##olk
wasn
##ocation
pra
united
disabled
##rown
preserve
Ant
Marine
222
schooling
manufactured
participated
runs
warnings
loved
Reuters
treas
hosted
IPD
Timesport
Technical
cancel
KPJ
volunt
reflects
Peninsula
College
Solutions
depreciation
Hui
crowded
defamation
coordinated
worrying
lawmaker
Rodrig
conceded
Fadhil
unnecess
Kajang
##Health
9pm
Lar
NF
Ur
hung
nitrile
rough
##time
##fast
##fian
##ference
##zir
##inem
##ania
##oul
thres
##irt
##acent
##antly
leisure
##awful
appliances
##obby
accumul
10pm
11am
##izan
shoulder
affid
highways
##auf
funded
para
politician
Petro
Airb
Airports
Pharm
divor
##istician
1991
Kui
constituents
replacing
machines
rolled
clinched
auditor
Iran
upgraded
bullish
consistently
counterpart
Danish
neighbours
NRD
software
punishment
winger
smuggling
sponsorship
Headquarters
discharged
livelihoods
compromise
code
Ventures
ActivTr
##missible
WhatsApp
temples
conducive
Lintang
threshold
Dhab
Each
Fair
FDI
Jamil
Kob
Ratch
dub
hor
hiring
lanes
makers
pion
rational
##ael
##ui
##yan
##ox
##Ker
##iran
##itha
##cho
seemed
##api
unilateral
span
109
Should
valuation
approvals
##ressing
##ported
handled
##ocket
drainage
News
Khairuddin
chemical
legend
750
550
Conservation
attracted
suggestions
strive
violation
Assistance
boxes
Everyone
possess
poised
existence
cautioned
synerg
##olarship
Are
Ath
Citing
Eagles
Gamb
Pag
Que
Rest
SW
Squ
Vaccinated
Yen
blam
bills
cope
eat
geograph
lies
od
vib
##54
##uits
##field
##CM
##62
##asley
##oult
##stal
##ette
##urse
##amul
##adu
##ighed
##aba
anx
impos
##ellor
Indra
##anco
assum
101
##ization
Product
quarterly
diagn
##liners
collapse
personally
internationally
Shem
Cheong
condominium
warm
arrivals
Masjid
##versely
penet
PBS
elevate
humanitarian
Diniz
dissolved
Beasley
coastal
volatile
subsidies
discipline
exhibition
Batang
Company
kitchen
lucky
ranging
radio
CSR
floating
practitioners
skipper
spearhead
KBS
Mis
MSC
MMC
MKN
Naina
Pte
RAM
Together
Vanta
Zail
Zone
aug
dominated
fibre
gym
hat
hikes
laid
mall
sight
##94
##73
##ED
forth
alive
uncon
unbeat
supplement
elite
##ikri
supportive
submissions
Marang
deteri
grab
refined
Agencies
Without
representation
taxation
Exper
collaborating
injection
harder
Zainudin
reviewed
Disc
commissioning
celebrating
distributing
cutting
Taib
Consumers
Safety
Turtles
gathered
Bintai
Employment
birthday
pictures
Tebrau
Martin
Cyberjaya
consequences
Mahmud
migrant
Manufacturing
ActivTrades
impossible
Vantaa
Arena
Cukai
Jack
JAYA
Kom
Mob
Miti
Mais
Samar
Viv
die
diesel
rape
##nan
##nership
##ca
##killing
##drew
##74
##76
##49
##66
##onia
##arak
##idences
##rees
withdrew
proxy
perception
compulsory
incon
unus
unfor
105
108
Shari
variety
requests
Singaporean
Indonesians
presenting
Brad
exclud
531
RM75
1998
Ramasamy
license
entrepreneur
Bahru
circular
Private
anticipation
tenants
liquor
associate
Morales
consultation
Grab
Implement
ASPs
Confederation
Machang
showcase
shrank
Hussin
Automotive
ambassador
Ladang
split
SIBU
Victor
Bou
EU
Eld
Gur
Gong
Sach
bps
coc
calm
nut
south
tent
##core
##met
##OM
##PJ
##inational
tool
##ingly
##aser
whilst
exact
chal
##ighters
Inten
leaves
impacts
##duction
flu
fled
commander
Asri
128
##avin
affair
arch
articles
##athy
Partnership
conclusion
extreme
Ahsan
safer
chest
Syah
MPOB
measured
Political
emission
Satok
skill
credibility
Nguy
firef
maxim
Telem
chickens
gotten
bribery
flows
parks
streams
adjusted
satisfact
harmful
Sukuk
Moto2
photos
minimise
removal
catalysts
tactics
William
Setiu
bounce
fortun
weighing
administrative
unanimously
downpour
Veterinary
precautionary
fabric
Nguyen
Cycling
Est
Eff
Estate
Fu
Hay
Jeleb
Meg
Pua
RP
Rate
Risk
Sau
Ti
cart
gaps
hurt
mem
poult
root
##eon
##kalan
##bage
##vy
##jong
##amber
##amine
##adan
##aki
203
204
permit
##agr
##ortheast
recurring
193
##astics
commend
Aside
115
113
whereas
qualification
##ashino
applicable
Umrah
volumes
allev
Adib
manufacture
522
realising
moves
talking
Rosli
Financing
indication
adopting
1988
Shafien
threatened
winding
creditors
Crime
triump
footing
Russian
messages
Rumah
hovering
##orbid
Agrobank
epidemi
Consulting
Kumar
Building
Likas
knockout
Nurshuh
Telemong
Jelebu
Eight
Gard
HK
Hib
IOI
Jie
Kah
LP
Mamat
Tamil
UEM
UMS
VOC
cook
damp
fate
kids
tag
##OA
##TD
##ji
##24
##ena
##ayed
##urers
forg
stuck
comorbid
##orted
##ounced
context
Heights
worries
Things
fines
##ALING
amended
122
Island
##raid
capsi
140
##ologous
MyK
acquisitions
##iscus
Haji
frontliners
balanced
audience
attacking
prosecuted
Kemas
harmony
##rooms
tweeted
fundamental
occasion
##iatric
Fernand
Alexander
Pausi
ponds
cultiv
FFB
WHO
NCIA
bridges
Nurshuhaini
BK
Big
Hear
Hub
James
MV
Po
Please
Race
Vo
Vidy
cat
gaming
mere
nabbed
waves
##cel
##dal
##fe
##laim
##bang
##bps
##46
##RO
##FM
##NA
##Xchange
##ores
##iter
##ott
##unte
unp
indu
appet
102
##resh
servant
arise
Forum
Conc
RM48
periods
demanded
Army
Sheikh
purported
##lists
525
##ANDA
defendants
timing
timeline
inspection
undertaking
crown
efficiencies
embassy
generations
NeXchange
motorcycles
NCA
Volunte
mosques
dominant
succeeded
colleagues
music
indirectly
Plantations
hamper
Fisheries
resurgence
ProtectHealth
Michael
Kobay
unbeaten
Intensive
poultry
2pm
Bangsar
Boys
Fat
Lak
Mits
NWP
STAR
giant
km
mag
nautical
pose
##98
##93
##UE
##het
##arudin
saved
stro
##igade
##erian
##lian
##lias
meals
##licit
125
coached
15pm
##mada
162
opposed
Level
fundra
param
##rete
youngsters
simultane
multinational
insights
Pakistan
booking
ventures
dropping
corporations
Medium
05am
rolling
innovations
Pengkalan
falls
facilitating
EPCC
entrepreneurship
fastest
fairly
touched
satellite
merit
miles
##worth
hectare
entrusted
Supreme
##opharm
Electric
licensed
Mukhriz
breathing
researchers
abandoned
pregnant
KKMM
dialogue
Lalitha
affidavit
Pagoh
Sachs
Bih
Kind
Rail
River
Taj
Wira
dign
fashion
##91
##aan
##een
##dzir
##sani
##lights
##qually
##zuan
##78
##CS
##wood
##erah
##oward
##arta
compass
trucks
expensive
clip
unif
##ube
##orms
elim
uses
##weight
Sabahans
##upid
Perai
crack
transmissions
distress
##afakat
135
discounts
landing
Span
##omestically
Para
voted
blow
##ambling
585
Assess
565
lessons
Hamdan
fewer
Berita
regulated
##ocumented
##appy
Regul
greatly
clinical
suggesting
1989
Prix
FY2020
panic
Operating
MBPJ
sporting
Ayob
Rumsani
suddenly
Shukri
Embassy
owing
sleep
ratings
inquiry
afraid
pilgrimage
Package
##achelor
vendors
ingredients
PETALING
controversial
unnecessary
Implementation
Bihai
Border
Gop
KK
Nom
Next
Oh
Paya
Tri
dron
diversity
element
equally
malls
##fit
##41
##202
##FY2
##erus
##alah
Ching
spor
dispens
firmed
releg
129
210
Azlan
##ursed
subst
Depos
Unfortunately
##ireless
##ologist
glory
owns
approached
prize
Amb
##osphere
Mohammed
Omos
symp
MoE
legisl
45pm
critics
Planning
Senator
normally
indicates
suggestion
liabilities
lightly
Infrastructure
Farhan
Bujang
volunteer
exceptional
Majlis
undocumented
Krasn
Properties
empowering
Muafakat
Legal
motivation
correct
America
AAX
Shukor
Hariharan
Yunus
Village
foster
Hibiscus
drones
2H
Clin
Log
LEA
Mats
Rais
Sport
Tamp
Town
Wil
stern
##nis
##dul
##uction
##oong
##pet
##pread
##MA
##atangan
##arat
##irac
##ectual
aluminium
heat
weighed
contrast
Inland
Coach
republic
pret
accidents
103
##oked
anymore
remainder
188
setback
AmInvest
slope
managers
Armada
RM80
MPC
identifying
Mahidin
powerful
differences
Asset
Wanita
causes
letters
##iqi
rankings
respondent
1987
Motac
sometimes
Salim
Kinabatangan
Being
ballot
##uyi
Siang
garbage
lorries
disciplinary
Insurance
battery
Strategy
Apdal
warehouse
reliable
geopol
Response
tensions
Equity
Dutch
symbol
misconduct
valuable
Samarahan
Assessment
Omosuyi
Krasniqi
Bid
Dy
Fest
FPS
Gross
Huel
IMS
Jam
Jeb
KW
Life
Zh
bird
gig
maker
wai
wides
##cl
##known
##uant
##lift
##ymer
##hat
##hilit
##inate
##inos
##ona
##onies
##ecurity
##amous
##ulih
##ria
exces
traction
recede
Heavy
##ollah
##ength
##ancellor
overc
reluct
regret
112
officiated
becomes
Perhilit
acts
Marz
desire
MAE
profitable
strategically
Dev
Syarik
Mahdzir
donated
debts
lesson
##ycle
##parts
Consolid
Serdang
booked
Early
optimise
Bojan
trips
circuit
Akmal
absol
##hibition
RTD
##ananthan
efficiently
counterparts
attributable
Fadillah
disclose
DoSM
sensitive
fundamentals
outpaced
lawmakers
Vidyananthan
fundraising
Huelva
widespread
Perhilitan
Bro
Dah
Dialog
Gome
Gavin
LRT
QR
Shen
SSP
TI
gau
sid
tall
tarn
##rawan
##eing
##kish
##iment
##ses
##zak
##IK
##RP
##KY
##eny
##arbon
##elela
##eth
##acular
recycling
Hee
##berg
unh
Chain
##obanjir
increment
Isa
Tanjong
subjected
146
nationals
describ
240
oldest
finalise
concrete
payout
drains
2002
passport
inflows
continuity
543
insisted
nominations
draws
Rosdy
1992
preventing
Medicine
Registration
borne
burd
Telupid
checking
cruise
diversified
petition
gatherings
Beluran
equaliser
escaped
relaxed
Prosperity
Pandelela
historic
Cooperation
assigned
Hendrawan
Jakarta
evolving
Blueprint
Tabung
autonomy
Administration
##Kerja
comorbidities
Syarikat
Gomez
A3
ARB
DE
Fact
Jason
Kud
Lama
Layang
Pap
Raf
Ujang
Ziz
coin
cold
lion
mill
mature
pic
##ez
##GUE
##inity
##enities
##itas
thunder
onboard
##uting
##emet
##rier
permits
##artet
complying
##ocurr
clock
Chun
pointing
amort
##areh
continuation
##urni
currents
brace
Selamat
161
allowances
KLCC
Amman
empty
feas
processions
##compass
Syariah
##aborating
breed
explo
begins
cooperatives
priorities
appealing
reviewing
broadcast
Regulations
device
deadly
reveal
Farah
Sharifah
Justin
feared
featuring
floodwater
convenient
Talib
frequency
unfair
Baharin
##igenous
unlock
Vaccine
helicopter
hawkish
backlog
tasked
reunion
JaminKerja
commendable
Spanish
BH
Bina
DX
FT
Ihsan
Ky
Maim
Nerus
Pont
SST
Sanj
Tay
Tump
Vari
Yamah
Zuki
ber
dark
kin
ter
upper
##ng
##mosphere
##front
##gle
##BN
##II
##win
##Vs
##inct
##inted
##itam
##arting
computer
traged
##overs
contempt
encompass
upbeat
unb
Chiew
indigenous
string
##ectors
supplied
consists
##ups
Perform
Select
transmissible
Ancom
165
Kelvin
MAFI
testified
RM38
refers
Maybe
2003
##comes
benefited
allocate
realistic
589
580
statistician
Berjaya
immigration
fulfilling
territories
lived
announcements
lodge
Fourth
adjustments
Hylo
Kulai
Ronald
pillars
Regionally
persistent
Pemulih
trophy
golf
embrace
prevailing
devastating
drowned
Lubok
wedding
scholarship
Creative
cryptocurr
spouses
LEAGUE
excessive
Zizie
Maimun
Pontian
Yamaha
7pm
BU
Dengk
Dollah
Hind
Lanch
MW
Municipal
Qo
Saw
Sains
cy
cush
gambling
nob
rival
##tle
##bound
##MB
##RL
##23
##reated
##iram
##imp
cong
centric
notable
weap
adap
unknown
##aili
governor
##enge
outcomes
command
consented
respected
##izens
##umpt
defended
standby
Terence
testify
Melayu
collective
Nasaruddin
interesting
listen
holder
##yson
excise
prosper
Kluang
##rastruct
seeks
firemen
PBRS
Auto
Annual
Separ
strengths
alternatives
ventilated
Fadz
Intell
thrashed
peninsular
collectively
tactical
Shamsudin
Cooperatives
gateway
##oppers
obligations
newspaper
unveiled
scrutiny
tremend
Shopee
FPSO
Tumpat
Dengkil
Dyson
EY
Gar
Grow
Hup
Jidin
Lic
Like
NA
Nam
PWD
Pitas
Tap
Tower
cable
dual
fing
gender
song
vaping
##58
##eX
##zz
##36
##42
##orr
##alion
##itious
##oup
forcing
revenues
whipping
proport
##erees
notification
enth
alliance
outreach
##licate
##ika
relie
remed
Alham
Allian
Short
##respon
Serian
infrastruct
137
backb
financially
postal
signal
strongest
competed
##retion
Airways
forming
PKNS
holdings
##tiar
exco
Hoong
ACL
restricted
practical
missions
replen
normalisation
buried
professor
exercises
resolution
Corporate
Choon
supermarket
Nether
Republic
expedited
Siow
thrust
correction
spectators
frequently
elsewhere
adhering
blueprint
DNeX
Sivas
copy
Associate
Dominic
BioN
intensify
Zailah
sporadic
dispensed
geopolitical
Consolidated
amortisation
cushion
Allianz
Blin
Caves
Der
FI
GC
Ikm
Kan
LL
LRA
Mav
MGS
Naim
Rem
Time
Tob
Tier
Wai
dup
hill
king
ket
##53
##eals
##ka
##kes
##point
##jut
##43
##held
##isations
##oting
alerted
atmosphere
205
notices
adversely
ships
##allery
imposition
##ghan
##hentic
Change
twitter
outperform
commenced
billions
##aju
teach
regulation
scam
businessman
receip
##taining
145
147
Anal
Anton
13th
knee
detect
detain
digitally
orderbook
Nasda
suspend
matching
responses
condol
maintains
footballers
practise
defeats
regulator
speculation
commissioned
appearances
##sequently
withdrawn
partnered
crossed
reflecting
definition
connections
Semeny
honest
##EMB
surviv
derived
Wahab
custod
Campaign
Sumareh
underwr
Lembah
Drugs
emotional
Kubang
observers
divorce
Regulatory
Nomination
##dulillah
Netherlands
Ikmal
Nasdaq
Semenyih
CF
Job
Lest
Linggi
Nine
Ol
Rat
Tauf
UCI
Western
Zaid
bun
hitting
iconic
lung
lots
mile
migrants
ped
##ms
##iff
##gests
##Rs
##esy
##ilah
##ida
##ayo
##stead
stint
stories
##akum
##uses
##abe
chapter
complied
Income
##awawi
##ifuddin
##ikal
lasted
buses
confusion
159
totally
Perhaps
highlights
capex
131
surau
252
245
authentic
drone
SMJ
Seo
Serb
insu
suggests
1995
Afghan
latex
IPI
ASF
evident
Pujut
Akhy
SDHB
complaint
steep
shelters
Goals
TOKY
patron
Byram
empowerment
survival
1952
flagship
Neitz
batik
mistake
Banting
worsening
college
diversify
diversification
Dato
Kapit
Persons
disbursed
##ogenes
Hoki
enlarg
Rodrigues
unusual
triumph
Fernandes
Dyogenes
waiver
QoQ
Akhyar
TOKYO
Neitzel
Dion
Dong
Fe
Fitch
LT
Lan
Later
MH
Mari
Mior
Puch
PRS
Ts
Teh
UPM
YB
iron
sand
tail
tired
wings
##71
##68
##Pay
inception
##acerb
reaff
##chang
exting
exacerb
##ago
century
yearly
agro
oral
uphill
uplift
outs
##ancies
decides
accurate
lasting
119
##owners
15am
##ibong
retreated
defensive
preval
publicinf
RM250
134
approve
auto
studied
##ospi
grid
Workers
knowing
cheap
discussing
Brend
controlling
subscrib
Elaborating
##eadilan
##onym
##ometer
swab
broadly
ECRL
connecting
indicating
indicator
welcoming
breakdown
Swift
Motors
RES
slowdown
compounded
Going
globe
Faiz
SHM
raids
Ayub
irrespon
Mukah
Heritage
Baharudin
guardians
delegation
privile
Setiawan
stadiums
journalist
NPRA
Sidek
nervous
screenings
Eldstal
Heart
Kinden
Alhamdulillah
insufficient
Puchong
extingu
publicinfobanjir
Aidi
Bor
Bij
Du
Daily
Hock
Jay
Kening
Major
Northern
PAC
Person
Ramal
bic
echo
jew
ran
taught
##ney
##uers
##KD
##DS
##arasan
##asion
##sten
forum
##acob
##uta
##cepts
##usp
##chain
recept
imposing
underg
intake
##licated
Italy
104
conserv
earth
archer
submitting
chiefs
##afi
traum
discretion
KLFA
RM45
##lina
Pras
landmark
RM55
revival
sentences
##lamation
seasons
RM600
legacy
positioning
524
qualifier
350
510
acquiring
restriction
skin
credible
##adius
Telok
1980
Philippine
depositors
parking
Danial
ballots
juncture
Moreover
Hanapi
welcomes
Palest
commencement
thrown
originally
GLCs
SEREMB
trouble
Sherman
Gunung
CNY
MDEC
apologise
ample
inconven
Boustead
appetite
Kobayashi
tragedy
Brendan
Keningau
SEREMBAN
Aeon
Dav
Danger
EM
EMCO
Jend
Juan
Keadilan
Liaison
Mex
Mizan
SG
TE
hers
magn
sort
wound
##apping
##nat
##yse
##RIS
##well
##ingam
inked
stagn
beef
ascertain
reass
Malik
209
plenty
192
Than
newcom
intense
##ampang
##aire
##rests
213
155
arrests
Command
netizens
132
quiet
Residents
desper
solely
##fully
everybody
subscription
Export
Exhibition
opted
Limited
560
##onsider
Seven
preventive
PASIR
hotline
Taip
trusted
picking
recipient
separation
dividends
examinations
seizure
pursuant
hubs
ambition
steadily
steadfast
OCBC
MOF
litre
stimulate
Integrity
rebuilding
prompted
accessibility
unlawful
##rosion
prohibited
redevelopment
Leadership
Jazlan
Shamsiah
dubbed
gymn
simultaneously
MAEPS
SSPN
gauge
enthusi
Afghanistan
undergone
Bach
Bish
Bachelor
Jah
Joint
Ko
KD
Kee
Kangsar
Nordin
Right
Sari
Zoom
ble
bureau
dance
fats
gri
gun
##84
##after
##uven
##far
##gang
##zul
##61
##hem
inn
##icide
##acher
beer
isn
##children
##opes
##udai
residence
Cost
##lication
relative
pepper
Johore
127
Shin
211
##oya
157
143
##athr
likes
ensured
139
136
approaches
MAA
MAR
MAG
longhouse
##entials
processed
Trad
sustaining
challenged
Syahmi
Bridge
legit
Puteh
532
closures
hardcore
editions
automated
1994
ranks
rebate
##rupted
SEL
divided
deadline
trials
Anna
##umbled
MIS
Benteng
predicted
Northport
HSR
AGM
Ayer
midfield
sharply
Insya
pharmac
instruments
Excell
SJK
vouchers
lecturer
Enterprise
Farizal
Airbus
Jebat
condolences
RESUL
irresponsible
herself
Didin
Find
Fikri
Ire
Jong
Own
RO
RW
SS
bin
breat
bike
federation
famous
length
rare
tone
wished
##cra
##drol
##fan
##yu
##gam
##AF
theft
##atis
##ediatric
##edayo
toward
inject
steal
##ceived
##cha
shorter
plight
clothing
Child
Chung
Indeed
intact
monet
##ikin
marketplace
earmark
##azing
##icket
##uka
quarterf
KLK
mayor
booth
informal
265
obst
proposition
Spr
Account
handover
drastic
revision
halt
Corrid
Ifedayo
Adenan
shortly
MPN
533
Markets
motors
620
RM70
cashless
difficulty
##ourne
Transit
Region
Sinar
links
Captain
Izette
inspired
contrad
dissem
Nazri
Felcra
calc
Colomb
intellectual
breaching
guaranteed
reinfor
flags
Sukma
Support
documentation
translate
Suhaimi
Conference
outpacing
Hilir
licensing
communicate
Tekn
fuelled
jetty
deceased
rejoin
Samsudin
elephant
Rhinos
Revolution
blamed
##agraph
alleviate
##ymerase
thunderst
BioNTech
Blinken
Biju
Ramalingam
stagnant
RESULTS
Corridor
7am
Bin
CAC
Dur
Had
KRC
Lor
Loo
Pin
Pend
Pract
Soo
Sij
Tony
Tanco
UP
brave
capped
paving
render
tab
tenders
##rudin
##auty
##nival
##bourne
##erang
##aram
##icter
##rose
##ammed
beaut
##igent
heights
shoppers
une
offenders
stricter
Mind
disabilities
disqual
discont
overcoming
amounts
seniors
mineral
intermedi
soy
124
##owned
cool
Iss
##itement
Selatan
publication
backup
solic
##ugo
Melbourne
refuge
##eseen
accountability
blocks
logs
Investments
515
multirac
insult
ICT
convince
assessed
Clause
enhancement
routine
Bahasa
KPI
marginal
protective
seize
violations
Kebun
disappointing
publish
kilometre
##fortunate
carriers
##arnain
SICDA
helicopters
uptick
wallet
workshop
inventory
laboratory
Belgian
DOSM
##lifting
accumulated
firefighters
##emetery
backbone
Jendela
multiracial
Bed
CAP
DP
Dua
EB
Fil
Field
JM
Jamb
Kam
KTM
Pop
Sed
Tung
Wen
Yam
arena
dressing
domestically
eW
gif
hopping
pension
##83
##86
##nity
##ea
##mo
##sal
##pay
##bit
##LB
##16
##water
inev
##itah
##oman
##rocer
##acle
##olve
##oleh
##imantan
##eman
pride
worship
##awat
Coord
unfortunate
replying
appeals
strain
##odrome
overl
##ulty
219
Onn
Isra
anywhere
defer
Selayang
finances
Penampang
16th
Framework
landbank
referees
propose
275
orderly
##retation
Adrian
RM800
specialists
##ASA
535
Azizan
regarded
analyt
convinc
##PMB
renowned
inflationary
choices
similarly
Pengerang
maritime
cuts
guiding
Exports
sized
Khairulaz
relationships
escape
clarity
clarify
mechanisation
efficacy
Skudai
African
Baddrol
coordinator
Kalimantan
honoured
gazette
plaintiffs
merchants
scientific
Sahrom
Procedure
##uzzaman
Prosecutor
voluntary
unforeseen
capsized
compassionate
Kudat
DXY
Separately
Mavcom
Israel
BP
Cultural
Eoon
Guang
Jom
Kos
Kund
Nature
Nanding
Roy
RON
Van
bold
boss
cum
fights
horn
kW
pure
pills
sighted
zakat
##82
##oir
##glas
##EG
##hee
##erative
##alathr
##iche
##urp
alarm
##abah
##aburi
##abouts
208
perpet
neither
noticed
truck
reconsider
##ffers
##endy
##endah
upheld
##ifies
unre
intim
assault
elimin
interior
123
Shuh
##ishment
##ishnan
##avarasan
medic
Perk
affirmed
186
149
Production
buoy
163
Enactment
248
Frank
lowered
founded
Umar
futures
Syar
Elavarasan
##onsist
555
promotions
Senai
Who
drove
optimal
packs
Scient
progressing
enforce
SETAR
Ramadan
Saleh
engineers
MIDA
Irfan
inspire
terrace
essentials
adjustment
sizeable
verify
Moto3
instrumental
Faridalathr
underwent
Vaccination
Mukhairi
Ridzuan
fuels
BSN
Lawyer
Nexchange
vibrant
cybers
Ratings
Dangerous
Coordination
Faridalathrash
Ban
Bay
Cle
CID
Fer
Fay
GM
Hitam
IQ
Ikh
Ju
Mit
Niger
Nabil
Niaga
Ren
Yuta
cables
camer
draf
yoy
##52
##89
##ki
##makers
##hari
##bour
##TI
##TPP
##zes
##CA
##UC
##arity
inher
instruction
##idon
##oub
attain
##akab
##ushing
exchang
##agine
##oping
notes
expo
##ords
Challeng
Chamber
underlying
scan
anytime
openly
Until
transit
##icky
166
##ernacular
Kham
downgr
download
restoring
RM32
Manjung
propel
applicant
cheating
modest
Brigade
speaker
Bernam
Darren
squads
promotional
attractions
CPTPP
expansionary
planting
assessments
acceptance
Mentakab
##lusi
Laur
internally
robot
deposited
MRSM
Radzak
ventilation
tunnel
Permais
demonstrate
Haikal
Charles
acknowledge
teammate
blockchain
smuggled
Countries
discharge
teenagers
##cotics
RCEP
workshops
Mosque
Douglas
harvesting
Larry
infrastructures
inconvenience
Excellence
earmarked
convincing
Khairulazhan
8pm
Buang
Batt
CI
ES
Fresh
Jaf
Mission
MRC
Nat
Pending
PEN
Peck
Rog
Sch
Toh
VS
Vice
Vision
WTP
Zet
Zaidi
cinem
dos
dogs
eco
erosion
hired
mal
vic
##56
##mond
##drop
##table
##vile
##TF
##100
##wara
##aton
##atang
##edict
##orious
##idable
##rears
street
haul
cha
chart
shariah
plag
plung
inconsist
expon
exporters
monopol
##ikan
whenever
interval
126
152
arrears
submission
144
genu
##ologi
terminated
Resort
presidential
corrupt
Track
Ahmed
Interp
suspicious
formidable
Khairil
MoM
External
526
##cheduled
582
Mohamadou
Daren
arranged
590
necessarily
marking
regulators
expressing
Bakh
Regard
Comprehensive
Societies
Zahidi
barometer
##deen
Liber
trio
kicks
superior
violate
cyclist
Belud
Semarak
Black
Outlook
belongings
Tuj
verified
spring
IJM
outbreaks
tanks
carefully
assignment
intensified
embarked
Tekun
Nagoya
Congress
fluctuated
antibody
Athlet
Queen
Jacky
Megat
Fatimah
Growth
Teknologi
Sijil
intimid
cybersecurity
Nigeria
Permaisuri
Aer
BB
Cen
Ev
EPS
FY
Full
Hiday
Il
Ket
LI
Micro
Nil
Nibong
Purch
Rich
Vinc
Whe
bio
lapt
nurs
vernacular
wary
##kay
##with
##WF
##JANG
ther
##inar
##atim
##eson
##eswaran
toil
##itual
##irnat
##ulan
##estation
plot
statewide
enab
expense
orange
##awati
impressed
wouldn
offs
newb
##like
disall
##erves
interf
121
215
##aternity
Azmir
185
attached
167
251
Khoo
downtrend
##uhan
travels
competitors
pressing
##inda
revital
purview
Noraz
logistic
populated
521
collaborative
smallest
clearance
Anders
paired
nomine
shutdown
immune
councils
enjoying
Izham
Zafuan
struggles
crowds
fulfill
Radin
eradic
FY2022
panels
parked
##eterologous
streaming
Hanoi
Turkish
Zulf
cement
cease
smoke
Aspirations
YouT
reinstate
garner
Permai
remarkable
disciplined
RoS
SAF
evaluated
religions
Joe
impaired
worsen
privat
unpredict
relocated
incorporated
paediatric
sovereignty
supervision
stunned
##winds
misappropriation
sincer
CITY
Certific
spillover
biodiversity
Antigen
geographical
vicinity
Vincent
##irnaty
Bud
CH
CV
Fong
Fama
Fatt
LPP
Mil
Mount
Satu
Sean
Saga
Yan
Yuan
Zawawi
fan
rush
sed
tur
telling
wake
##OX
##hetic
##organ
##alers
##iders
##idah
##ecca
##eling
##otco
##cean
##osh
##riend
206
##oogle
##istically
admit
##ocational
print
recon
ages
residing
##ifi
impending
implications
##ellery
##eps
applying
preference
mini
Bharu
##urrence
consp
216
##ewife
Perling
182
subdu
setup
academy
Marina
168
133
175
172
activists
MAB
242
##porary
finalising
269
RM56
propri
courtesy
revolution
readings
PKOB
baseless
Phil
581
debated
517
##ORE
simpl
lesser
720
premised
1999
Merced
Razman
PBT
immun
acceleration
Technologies
hyper
Swed
examine
violating
fulfilled
disappear
forestry
Sahab
Comirnaty
deeply
Impiana
battling
bidding
emphasise
raided
Benut
vacant
illust
NCER
Sentral
alignment
Ern
utmost
1967
displayed
Haziq
Pandan
Imran
occasions
diplomatic
Steven
tasks
rotation
aggressively
fatig
Ajmal
interpre
lingering
recreational
kilogramme
Subramaniam
thrive
hungry
Mobile
maximise
Festival
breeders
relieved
##akumar
innoc
breathe
beautiful
analytics
Bakhtiar
Ain
Aqu
CM
Here
ILO
Jones
Kang
KPM
Lag
Mixed
Money
Puan
PSM
Sg
Sak
SAP
Sng
Teck
Vis
Wid
gon
heterologous
jack
lag
lend
memor
ritual
soul
yours
##lus
##bro
##BT
##Net
##Don
##iner
##orism
foref
forfe
stalls
##ulf
##osures
fraternity
207
hailing
incomp
expir
##ifiers
manip
amazing
##ampus
assumption
RM110
locate
10m
Sarawakian
confisc
Azreen
189
1800
defined
transfers
178
176
opposite
Khaled
downt
##rolog
RM34
informing
Prince
slim
Managers
metric
readers
urine
passion
Secure
specialised
601
Monitor
450
Sultanah
judiciary
divest
490
##lima
optimisation
scores
indicate
Registrar
hearts
IIUM
ICUs
distributor
Akram
Others
repaired
cyclists
Christop
containers
Radio
Note
Grampus
juniors
dedication
Edge
verification
biological
Valent
scratch
##charge
coordinating
Winter
rooft
##ENT
pledge
adhered
tackling
diligence
teenager
railway
envoy
burning
Tasik
crops
apparent
loyalty
streak
fortunate
reluctant
discontin
Khamis
Lauren
unpredictable
Mercedes
Cour
Cuth
Dus
Hans
HIV
Jet
Kog
Kospi
Las
Mess
OP
OEM
PG
Point
Rank
Rob
SI
Sang
TR
Take
Tiga
XOX
Zaman
band
ts
van
vying
##59
##cr
##mates
##ipp
##pha
##LR
##79
##HE
##WA
##ints
##inating
##asek
##rog
##urusan
sty
##otine
##aky
##rix
##abr
pertaining
##ials
incred
inclusi
invitation
spare
abused
underd
assure
maturity
218
212
endanger
Azimah
Azfar
improves
Conn
##ensh
223
surging
254
prizes
headwinds
Work
Deep
Center
employer
taxpay
syabu
jobless
583
45am
Investigations
hardship
edotco
illicit
norms
golden
Pengurusan
illegally
eligibility
renewal
Baling
Seksy
spirits
##haul
complainant
bode
MBPP
##quez
mindset
Sahak
educate
Takuro
1971
Block
Roadmap
Impact
disclosure
Kamarudin
Hotels
neighbourhood
Sky
awaited
punishable
JPN
##aldi
adherence
Panglima
mechanisms
pillar
veterans
entrance
Markit
bounced
relying
Velodrome
Meas
Sheraton
sweet
Pohang
exemptions
fertiliser
sparked
macroeconomic
Matthew
Renggam
penetration
Sanjaya
jewellery
thunderstorms
Nilai
subdued
Cuthbert
Seksyen
AD
Bencana
DV
Doh
Gide
Hasn
Live
Lep
LSS
MDV
Norm
Pd
Reh
Rober
SL
Sip
Sug
Taking
Yugo
bow
hid
mood
sick
##averse
##ky
##kandi
##iates
##uf
##tures
##hana
##NC
toler
##isons
##idity
##icts
##icul
##olta
##lements
##ulent
washing
20pm
perceived
plaz
##endran
Initi
impression
imperative
applies
thereafter
Online
quarry
151
median
depri
shouldn
Srikandi
174
Resource
##minent
signals
RM36
header
263
concurrently
286
objection
payable
##inding
MyC
chef
contracting
Adham
confirming
##IDS
380
080
Sequ
Review
scorer
prevented
##ovolta
renov
planted
Compet
Cambodian
Balau
inspir
spoken
Sharin
Nazir
typically
Operation
embarr
##iquefied
artists
punished
streamline
CBT
PLCs
answ
sponsor
##ianto
sanctions
bearing
apartment
Jeffri
motivate
Rohing
consolidated
frequent
Schedule
structures
Pelaj
Beting
dynamics
Fernaldi
troub
underserved
humans
Eleph
pigs
inoculated
pivotal
wonder
Pharmaceutical
Dhabitah
Area
assuming
Vivian
eliminated
AmInvestment
unhappy
conglom
SHMKM
Bishan
Sprinta
EBIT
##ichever
##abahah
##withstanding
Gideon
plazas
##ovoltaic
3D
Aerospace
BF
Cas
Card
Citi
Deh
Dollar
EGM
Foo
Google
Mard
Merc
NB
Poll
Rating
SY
Sir
Ven
WC
baza
bomb
kill
liaison
natives
okay
surr
turt
wra
##rat
##rise
##nizam
##coin
##kili
##iqu
##pah
##gu
##vo
##FP
##PER
##VE
##NET
##inks
ine
##etting
whichever
##oop
item
recap
contests
flour
##sek
##ode
##liam
commended
decarbon
Assek
possibilities
217
214
158
brighter
affects
deferred
142
Maro
termination
179
Kelana
banker
239
270
50th
drain
formula
Cheam
cheer
voiced
Agenda
explaining
586
clearer
395
Musashino
540
moments
610
##represent
Wholes
470
accessed
Razarudin
branding
nevertheless
defenders
naturalisation
hotsp
proposing
exported
plea
prima
surety
forecasted
threatening
inspections
violated
briefly
soldiers
Smith
##SPO
##chemical
Simpan
Standing
Makt
stopp
vacate
rescuers
Sukamul
photovoltaic
Talent
opinions
Chartered
litres
fixtures
engagements
##eera
fisheries
Utara
Machap
originating
Santos
Lebuh
eyeing
Gemas
shifted
overturn
encounter
Continuous
untoward
Tahir
compatriots
Initially
nicotine
shooting
Petroliam
cocoa
nutr
##hetamine
stroke
Gopal
Tobacco
Taufik
enlarged
quarterfinals
Purchasing
Courts
Sukamuljo
AR
Cal
Ek
EW
Educ
Fun
FIM
Hung
Huang
KE
Kol
Lir
M3
OS
Pow
QNET
Solid
Vign
Wal
Where
creat
cogn
dim
deng
eastern
hed
liquefied
neck
tighter
##ray
##raw
##hah
##zlee
##CF
##erra
##atization
##itect
##enter
##amas
stol
stars
reverse
alt
##ulang
##usal
suite
##ophy
chancellor
contag
enrol
Incent
Third
Chua
underpri
Mines
intrad
meg
amenities
##arge
##mee
Still
##izz
endors
serviced
##undai
##umping
Unlike
transmitted
facie
##ernel
##ensic
knocked
230
ministerial
243
restart
Amri
##lind
slopes
concerted
Trading
extract
Parents
revenge
Shell
cheque
Ageson
MPIC
benefitting
instal
instant
588
excuse
##named
environmentally
385
greenhouse
399
545
376
Maszlee
divide
Faculty
utilising
780
034
organiser
Compl
designs
##lusively
PPE
IHS
Overnight
curve
bags
Safe
petro
Zaki
briefed
Paitan
Ongkili
minds
##iennial
Surve
survived
wholesalers
clarification
Systematization
Hyundai
Hafizh
funeral
Incorpor
liter
fixing
catching
poison
trailing
DNA
protocol
Helmi
Zamri
paal
thoroughly
McDon
Lotus
sourced
habitat
repeatedly
Trucha
Zarul
navigate
Urban
synergies
Saujana
paramount
Clinic
Lanchang
survivors
bunches
Jahab
Roger
Zeti
##vileged
YouTube
fatigue
forefront
Wholesale
stoppage
Liridon
Vigneswaran
stolen
underprivileged
intraday
AK
BC
Bek
Book
Bobby
Dh
Dang
G3
Gel
IW
Nangk
Pors
PAN
RTM
SB
WRO
graft
rated
rall
raz
tear
##57
##rack
##rating
##nie
##ement
##tress
##Terra
##enth
##entin
##roat
sail
stab
proves
##osophy
##aints
frag
framed
##andro
chronic
notified
webin
trace
contents
contenders
##ffian
expired
leak
upro
unite
spo
##odies
##aian
thereby
registrar
mattress
Shap
ende
herd
attorney
169
229
227
surcharge
235
signings
travelled
264
pressured
Maniam
fares
Argent
formulating
revamp
useful
Agama
RM63
MPKK
appointing
Phys
condem
603
puts
369
566
Pasar
occurs
edible
sky
cleaner
credentials
optimising
witnessing
810
materialise
prospective
SUPER
screened
Darulaman
Capt
Tenang
consulting
consultancy
solidarity
Bangi
Aminah
Quad
Quentin
SilTerra
##iyad
Aspiration
dependence
##vinder
apology
Professional
mortality
occupied
photograph
Samad
derivatives
consolidate
Charity
Timor
assignments
IMF
Steel
Fazli
Romel
sincere
compatriot
hydrogen
SDGs
conveyed
Wakalah
captured
Ratchaburi
Voters
pretty
tarnished
conservative
Certificate
taxpayers
Rohingya
Surveillance
McDonald
Nangka
Porsche
850
Bureau
Gob
Hol
Hun
Hap
Hua
Hiro
Jem
Kinta
Lord
Nus
Pus
RANTA
Saidi
Vin
Watan
WWF
XL
Ziyad
biennial
cats
fault
gift
homet
killing
lap
mR
oxy
pad
rented
tro
##rich
##number
##baba
##xim
##OT
##wah
##erland
##erdeen
##orous
##aleh
##alina
##ele
thumped
stopping
##otten
##estly
##riers
exha
##iva
##apol
orang
unav
spared
abol
underest
##odalan
outnumber
Stan
Alan
Alwi
Sholeh
##okh
##ishah
conferred
156
Azlin
183
USM
##lete
meets
ensures
demograph
whereabouts
RM41
##porna
demanding
paragraph
262
refin
279
equitable
creates
campus
formulate
##inking
##lamm
turns
lineup
##holder
boards
##ysis
Expl
##anny
donate
349
360
##stitutional
Limbang
firmly
Hoch
Marketing
talented
Facility
Alibaba
090
Vietnamese
Whatever
1993
regionally
Regulation
Governance
commercialisation
clinch
liber
1984
complacent
Izhar
Otherwise
dissolve
advantages
Lawas
Majid
Semporna
trainees
negotiation
Grey
equalised
Bloom
exempl
Maximum
couples
Permodalan
attempting
eldest
Volume
exhibitions
Bangladeshi
tankers
resumes
prioritised
Yahaya
Entrepreneurs
Utama
constructive
tropical
supervis
Hussain
uptake
semif
sacrifices
rejuven
sourcing
Future
JKR
argument
counselling
praised
pioneer
Squad
anxiety
Efforts
BKSS
Hindus
##umptions
Derivatives
Analyst
Antonsen
CFO
newcomers
Johoreans
exchanges
Jafry
exponential
genuine
Ernst
Jahaberdeen
PANJANG
RANTAU
Watanabe
hometown
Bun
DI
Dream
EA
Ginting
Hill
Ji
Jim
Jab
Jess
Kw
Kes
Kerian
Lever
ML
Meh
Nation
Pemb
Sate
Sia
Sign
Session
Ver
Vir
cue
dat
kernel
mouth
radius
sir
vs
##rs
##eem
##kal
##kar
##pal
##bul
##St
##jud
##EE
##UA
##esco
##araj
##terworth
##ille
##ache
##ersey
proving
##akam
##osmet
wash
##through
haz
chase
changer
##ourage
printing
tracing
recyc
sealed
19th
resh
lean
##pert
##ards
##arditis
##awar
commanding
assumptions
Saban
peer
tea
consc
depression
crises
hero
141
backdrop
17th
costly
Melvin
grade
payroll
electrif
drinks
halted
Devan
sentencing
Butterworth
exploration
considerations
361
sooner
excitement
537
512
edging
RM90
591
progressively
Zainuddin
encourages
swing
athletics
Metro
packed
ageing
destru
PPN
Rtd
normalcy
breakthrough
dispute
Switz
triple
Salak
stationed
examined
slowing
inspected
manageable
SDRs
Demand
prosecutors
walking
narrative
Amira
Jeram
empowered
Hangzhou
Rasm
Simpanan
reiterate
Skip
irre
Standards
translated
Kasih
tanker
JPJ
IMO
Changgang
relocation
Dataran
shocking
Kadir
Jagjit
stunning
mounted
sacrifice
casualties
disagreed
Macau
councillor
Gambir
unpaid
Volunteer
legislation
Logistics
cryptocurrency
weapon
prosperous
ketum
gifts
Battalion
inconsistent
Whether
memorable
Valentine
Incorporated
mRNA
Bloomberg
2am
Ais
Aud
Aishah
Boot
DFI
Dzul
Hi
Hani
Ira
Joo
JPS
Jakim
LBS
NU
PRA
SAM
Ult
Yet
avenue
aided
fare
hinder
je
junction
kel
nur
##51
##rics
##aah
##kin
##yani
##bi
##bah
##bean
##TER
##37
##what
##FAM
##Hub
##ennial
##orld
##ecured
##rove
##olate
##olks
##utong
##ithub
anc
anonym
haj
compare
##ocal
conting
expose
##allet
unreg
invite
##ailing
##quet
commencing
##enched
Sabu
interven
##ewise
Ismee
##upiah
184
148
disturb
Anak
Marlias
somewhat
##echnology
Conting
quitting
224
253
241
Khas
qualifications
candidacy
RM46
corp
Franc
267
phones
entails
505
Suz
systematic
topics
voices
Harith
naming
Within
moral
329
stateless
362
Assumption
547
seekers
579
Peuge
cleaned
integrate
681
Simon
choosing
019
lacking
dispose
engineer
separated
attendees
apartments
attacked
Lawr
crowned
Nazlan
negotiate
Amirul
charity
pulling
##breaking
Quartet
disposable
satisf
guarantees
conclude
recruit
Employers
HSO
upskilling
demonstrates
kinds
executed
photo
Golf
##auded
Delhi
grandchildren
Shamsul
Upd
ramping
trailer
Hasmah
roofs
musc
wheelch
Narcotics
Associations
intentions
Collin
disburse
CAAM
anchored
councillors
spanning
satisfactory
hampered
dignity
##2021
Tampin
coinc
unbilled
##orrential
proportion
Leste
subscribers
privatisation
confiscated
Sequerah
Elephants
surrender
Complaints
Switzerland
Peugeot
AN
Apri
Bash
Cond
Cross
Ep
Github
H1
Kamil
Lank
Lian
Laut
Mes
Navy
PAH
Sl
Sav
Slo
Temb
Tien
Visa
Waste
Xin
Yaz
Za
cough
dorm
dental
dwind
et
jersey
lined
nod
rung
rock
vert
##mers
##math
##sw
##fuss
##bill
##Co
##NP
##eni
##oral
##orse
##alib
##itative
##ayuth
##andee
##uning
##iston
##anting
notably
##ustre
shine
org
leasing
unfortunately
Changk
##quire
twe
outd
overhaul
assume
##ittal
soaring
Almost
##oka
11pm
prescribed
##ibly
localities
victories
Communication
opens
##athi
recovers
138
receivables
Leandro
246
respects
317
rested
##dney
lowering
260
estates
277
everyday
revoked
Coraza
void
Sydney
Barring
failures
populations
529
539
650
549
understands
footballer
treatments
575
Seung
465
Andrew
treating
Meru
lackl
##ITB
barred
examples
avoiding
Putera
Setar
inspecting
superb
dissatis
banner
colours
stepping
brothers
administering
methamp
##flows
1974
Hannah
DoE
halls
subsidised
tendered
Kiandee
Sentul
Damai
http
dreams
Internal
Pelawan
Mustapha
##imbang
diplomacy
pumps
Studies
redeem
##rimination
Sahruddin
elephants
patterns
Raymond
deterior
epidemiological
forgotten
Intelligence
tremendous
thrusts
bicycle
echoed
desperate
legitimate
Colombian
kWh
Challenge
monopoly
Richard
newborn
##represented
Incentive
Quadra
oxygen
Greysia
Iraq
Lawrence
Apriyani
Sloven
Changkat
1pm
Bain
Boo
Canc
DJ
Dri
Fre
Hwa
Kawan
Kurni
Los
List
NIM
Northeast
Pating
PCC
Quran
SRI
Tat
Word
bund
cell
craft
folks
lament
mang
raced
tension
taste
wireless
##listed
##TH
##TV
##Us
##FF
##health
##ensi
##orestation
##alian
touted
##achers
beauty
rebr
##sies
fron
bypass
##ppled
##chi
##uniti
##uneration
shipment
receding
##apy
##awn
##eport
aftermath
##ubong
Mini
dish
commemor
##airy
Along
themes
anybody
##ibr
retiring
##undi
18th
Enh
226
advent
234
signature
solved
RM49
RM43
RM31
RM37
showdown
Fraser
##ffici
Arjun
Mayor
airasia
Petra
Sufian
##teen
accountable
politically
passes
organic
succum
benefici
guides
Poland
Orders
324
332
capacities
516
384
Pasuk
66A
practising
RM700
Teong
##ANA
##backs
999
##ihan
##ERI
Merch
##ova
##aluable
IPT
Compliance
Tae
liable
normalise
Matrix
mandated
KPKT
granting
Sunrise
Sadikin
Offshore
Judicial
digits
predomin
Bintang
comfortably
Silver
unsecured
reinvest
bearers
CO2
executing
analysed
Jelutong
derail
Volvo
thousand
translation
Suhakam
graduate
Firstly
Betong
worsened
dominate
sadd
warded
GLC
Commodity
FMT
blessings
Joniston
swimming
Qualifiers
BSL
illnesses
##yright
whistlebl
anchor
PERA
substitute
conferences
excluding
Hayati
##laimed
magistrate
##aratnam
Tapah
supermarkets
Borhan
wounds
Bachok
uneven
LPPR
yourself
downturn
Dusun
PdPR
Pelajaran
dengue
petrochemical
Contingent
lacklustre
Kurniawan
Patinggi
beneficiaries
BM
Bian
BENT
Did
Dow
Foong
Git
Haw
Kip
Kpah
LA
Len
Mend
Mamb
MTC
Nep
Naga
Pia
Pecca
Sheng
Tiram
Vehic
cant
cave
fug
groc
gallery
lunch
nurt
null
pts
rupiah
sor
yes
##autions
##eas
##eper
##mitt
##mother
##dives
##hal
##hai
##gart
##gering
##vi
##vious
##TE
##Mall
##ION
##KU
##KANDA
##erates
##stration
forex
##adh
##adin
##irah
##lyn
##imi
Malim
Maldives
##unct
##unami
##opard
##usters
adul
##oodam
uniqu
##iao
Chian
offensive
abilities
outfit
##ancers
##liest
##grande
accred
##ajaya
needing
##assed
totalled
dirty
Persi
181
187
171
173
Single
advances
bankrupt
stronghold
315
autop
costing
cerem
285
281
280
RM58
278
elective
Petani
customs
Shahar
formally
299
Death
shortfall
seasoned
benefitted
bases
Noraini
blocked
legally
330
collaborated
364
567
dealt
dealings
551
productive
660
670
770
convoy
convention
heavyweight
PPI
Teleport
menteri
windfall
partnering
crossing
audited
deploying
precautions
Firef
kicking
upgrades
MMLR
repairing
RM120
tighten
festivals
PUTERI
pursuit
transitioning
Kemuning
bott
Evergrande
limitations
isolate
Benz
Badak
corrid
Johnson
Schools
Hazani
degrees
ultimate
Embas
overwhelmed
durian
##laan
wooden
Students
undersc
shifting
Jonatan
inquiries
newspapers
voucher
ISKANDA
fatwa
Enterprises
fertilisers
patrols
surface
blankets
Restaur
diagnosed
deterioration
Gardens
##opharma
describing
Papar
nobody
patrons
reception
Palestine
Traders
Lorong
Practice
##urpose
Athletics
expiry
Jetty
contagious
Lanka
methamphetamine
succumbed
BENTONG
GitHub
ISKANDAR
Ai
BPMB
Cz
Cars
Dhe
Ext
Fung
Hiz
Ib
IV
KIR
LITB
MG
Mul
Ring
Rain
Song
SCC
Tik
Tomm
YTD
Zolk
drought
eating
fed
gard
hang
lie
pages
ser
tin
tents
##yard
##oat
##ping
##xic
##voc
##IPS
##woman
##WKM
##World
##erk
##atok
##itably
##isive
##etic
foray
forever
##irm
revel
rejection
##abis
##about
##ahar
20th
##chron
##istical
##oured
plots
enters
##astian
unst
uncont
##ailable
##anche
overhead
senator
Sabak
##ekman
##aja
##ogged
helm
Step
regime
earliest
##iteering
##avours
retaining
retrie
Pern
likelihood
Penjana
backing
discrimination
238
MAH
257
256
244
deter
solo
RM47
Partners
RM39
##dness
slammed
289
284
refuted
refusing
supplying
100m
reviving
Admir
409
polled
Polish
##ambut
320
334
engines
365
agreeing
Hamim
390
occurring
597
promotes
418
460
466
Warning
744
buyer
nominal
greatest
Taek
determining
strikers
barriers
1985
disposed
distributors
denying
screensh
KPWKM
misunder
absent
Subsequently
Beau
PCB
adjacent
Terrorism
##housing
Yeen
harness
influx
summit
ambitious
CBD
Segambut
searching
surprising
##chet
Mosti
Intel
popularity
Jeniri
foul
hunt
##rafts
vacancies
Customers
substantially
Gonzal
mutually
Palace
structured
mitigated
UMWT
ultra
Utusan
PR1
sample
relocate
wards
textile
incorporating
warehousing
Lembaga
envision
Leban
Jagde
synergy
unanimous
Mutual
drinking
Passeng
Solarvest
Futures
assembled
Pias
pione
forthcoming
architect
relegated
feasible
exacerbated
booths
contradict
eWallet
Renew
plunged
KPMG
TRX
DVS
Robert
hidden
Initiative
conglomerate
EBITDA
Nepal
Czech
Tommy
Admiral
Bot
Det
Deb
Ec
Ey
FMCO
ISG
Kop
Keng
Mulu
Ny
NS
Nap
Occ
SR
Sih
Sikh
URU
Ulaan
Wels
Yin
Yon
Your
Yakob
Yuki
ast
aqu
cri
civ
cup
eve
gest
kamp
koodam
lights
northeast
pest
pork
tip
wet
##ko
##maker
##uah
##tah
##lela
##pa
##gently
##vity
##OW
##BE
##CO
##wal
##inan
##icable
##elect
##urally
stabbed
fray
fruits
##ivated
shame
recalled
contention
191
##astro
reset
residences
##oints
invaluable
Thye
##ght
##ghulu
adds
Choy
##iking
RM160
intermitt
Starting
usher
Alves
Show
Shaz
Shariff
##isha
21st
economists
copper
Azrul
Azalina
winter
301
304
Units
RM29
genome
acre
Analy
##afuddin
mainstream
Forec
terminate
Chini
228
desired
236
MAX
longest
signalled
Manila
manages
RM51
suspic
tops
customised
contributes
drilling
urgently
291
40am
Branch
morale
528
326
dollars
563
51st
squash
383
548
488
484
Holding
networking
434
Zainul
integral
Reaction
limiting
credits
ICPT
broaden
888
Scott
##sification
pleas
classrooms
designation
resolving
Crude
jumping
##lla
flowing
Irwan
##baatar
anticipating
commented
MRO
Sharafuddin
terror
Grade
portfolios
baskets
walks
reserved
advancement
ambul
Carbon
accommodative
curbing
accorded
harmon
Wangi
remarked
PDI
Haul
digitisation
Panthers
fixture
throwing
antigen
prompting
Summit
owed
##books
Leader
golfer
embracing
advocacy
Lubuk
Paulo
Quality
angry
Belgium
Lawyers
Fortun
congratulated
sequencing
synchron
treasurer
MyKad
Concern
##FY21
overcrow
absolute
Brook
Performing
Duopharma
Findings
rendered
refugees
publishing
deferment
RON95
eliminate
Syarifuddin
Messrs
NBL
destruction
Slovenia
Beaufort
PR1MA
URUS
Ulaanbaatar
Average
Bos
B50
Brian
Cru
Cabr
Eli
Essential
Fa
Focus
GH
Grocer
Icon
Jian
Jawa
Lower
Living
Manc
MALA
MGA
Nab
Path
RS
RA
Rin
Rab
Roll
RCI
Virt
Washing
aer
aide
dive
eater
torrential
wak
woes
##fred
##pac
##ht
##bing
##gage
##Al
##2H
##inah
##ato
##orary
toxic
##inger
##asm
##ecrack
##steps
forese
##olet
rever
reaches
##usah
##pple
##ivities
##opark
##ounce
##anted
pron
plastics
recur
incoming
##apa
enquir
##asting
##astrop
Heat
##iau
abund
Mineral
disability
##gradu
##mey
Stef
economics
##izi
##izza
covid
infant
brill
caps
307
Proc
opener
buffer
projections
childhood
177
Kelalan
salv
318
31st
slots
competent
##aidu
501
Worldwide
70th
##itorial
Actually
40th
modification
MPB
MPOC
605
subside
Islamist
##hester
fails
523
322
midday
goalke
388
encro
hardly
writ
480
cannabis
institutes
Afif
progressed
courage
proposer
##ijaya
014
SEP
settlers
normalised
Rahayu
thoughts
Yusri
flowers
Baljit
absor
Mainaky
MM2H
Nazmi
consistency
artist
reservations
1976
surprises
arms
unsure
1957
commonly
Directive
Neutral
await
Timber
Payment
Shamsuddin
Cooperative
socioeconomic
DNex
minority
Secondly
reliance
inputs
FMM
merchant
shifts
Modi
blessed
Farmers
alcoholic
tricky
disagree
MMAG
Ceremony
hesitate
affiliate
recreation
stemming
Goods
Tomorrow
unconstitutional
supplementary
Komuniti
Garden
dampened
Depositories
Biden
berth
adapted
pharmacies
Pinang
Mindef
soybean
Shuhaily
revitalise
eradicate
innocent
Lasimbang
tsunami
underdogs
tolerance
turtle
hotspots
cognis
endorsed
literacy
exemplary
Haniff
jeopard
nurture
muscle
Cancer
Worden
grocery
autopsy
Dheva
Piasau
Occup
Haulage
Cabrera
Manchester
Washington
foresees
3G
Ale
CD
Coup
DC
DH
Duit
DWN
Fit
GA
IGP
Jit
Journ
Juris
Lear
Lets
Mous
NIP
Ooi
Pong
Pangk
PDB
Pilah
Run
Som
Toll
Ul
bath
cemetery
cosmet
fo
lake
moh
pin
rav
tribut
watched
##rishnan
##dL
##dles
##usive
##hr
##how
##bad
##bby
##OK
##BI
##Banjir
##EF
##YS
##DSB
##ano
toug
##itus
##elight
##eload
##roh
##adow
##acity
stone
proxim
##uling
##osc
##osis
washed
##thur
##abase
2035
##angers
##angible
RMAF
deeper
seas
1950
##asted
agend
##allel
Coff
unw
invasion
##iaz
##ipah
Choo
spurred
caseload
abusing
underground
Individual
Mintah
prejud
##achai
meat
meal
overla
elabor
##aiz
interaction
Stock
Saratok
##ivery
USD
309
cricket
Selv
Proceed
buffers
Anas
##ensions
deserve
237
longhouses
detri
316
tradition
importing
RM44
Fred
lookout
imminent
returnees
obvious
refuse
refurb
RM54
##fti
initiate
Petros
Shebby
urgency
alleging
RM62
breast
Elite
seller
339
562
534
518
emulate
546
379
Prep
572
directions
439
749
Reza
freehold
institute
packets
##attan
Design
exporting
lacked
liability
PPR
stops
appearing
piles
Karsten
hyp
guideline
circulating
Balik
websites
disruptive
THR
speedy
oversee
liquids
Sadique
contains
sizes
Relations
CEOs
Portug
ticked
towns
MIH
widen
equality
Saham
ambitions
##brella
Carl
Quinter
bottles
demonstration
advisor
Avillion
Khalil
attempted
vacated
conversation
cigarette
semiconductors
Samuel
converts
linking
LazMall
shareholding
dining
CCA
shipments
concessionaire
embarking
seemingly
PwC
surgical
Idaman
tariffs
journalists
ambassadors
upholding
aggrav
drowning
frustrated
Players
affiliates
eventuality
arguments
antibodies
SWCorp
entrepreneurial
Gurd
memories
purportedly
Mitsui
Ambassad
sidelines
Garuda
detainee
custodial
LTdL
Ownership
Guangzhou
nominee
incomplete
Doha
inspiration
SYF
Functions
Update
lamented
predominantly
Kipre
fugitive
ceremonies
Restaurant
Napsiah
kampung
SEPANG
proximity
Quintero
BL
CCI
CKD
Dell
Ez
EIA
Gok
GST
ID
Iconic
JF
Jus
Komp
Luck
LANG
MQ
MER
Night
PI
Pun
Rose
Saz
Sath
TB
Vi
WZ
Zamb
draft
fence
migration
nice
naught
western
##ugan
##tj
##ferring
##liness
##oided
##TK
##ATA
##GR
##onut
##itures
##start
##eters
##etus
forge
##acles
##utan
##veraged
##imas
Malak
Malina
##andy
##andom
##unk
##unjan
hails
##anto
##ocarditis
##ourism
##umn
Inari
leagues
clocked
Coaches
unse
repub
##sea
firecrack
assert
##ogas
posing
operandi
Italian
conserve
scar
Ministerial
presents
presidents
confused
##iba
Azura
308
publications
##lets
Maria
Marsh
housewife
posters
Residence
258
##racted
trades
Amid
Prec
concurred
phil
288
282
28th
obstruct
Jalal
##ussen
##omestay
avoided
seasonally
modus
benefiting
beneficiary
Polymerase
Monsoon
speeds
allocating
527
optimum
cooperative
policymakers
392
acquitted
371
578
731
737
595
sworn
447
accessories
Simunjan
1997
packing
##attle
Sciences
corporation
PN17
Kugan
groundbreaking
858
Panel
cumulatively
III
stressing
complained
SUV
silent
facilitated
courier
Dayang
KPLB
picks
affordability
Balak
reflection
contrab
##istrates
issuer
tennis
Opcom
Zakir
bodes
embro
MBI
MBSB
consultations
feedst
influenc
honours
1972
Quick
Midtj
Throughout
catalyse
Husain
requesting
provisioning
Permatang
executives
Arifin
Hakimi
middlemen
unfavour
proactively
Kalamul
prioritising
adolescent
MRT3
Rodzi
Usually
instrument
GLIC
rangers
sanitisers
jetties
##ileswaran
hawkers
Modern
Honestly
Lunar
apologised
##ylland
hesitant
climbing
niche
oversight
Citra
conferencing
reversed
NFT
Dhabi
chalked
catastrop
Tajuddin
uniform
relegation
Kyiv
Licence
receipts
prevalence
extinguished
Mexico
bureaucr
JMG
KTMB
Scientex
Ferry
Tuju
springboard
toilet
interfere
proprietary
Kogileswaran
Measures
##hanaa
webinar
Gobind
underestimate
Aisya
Dzulk
saddened
Fortunately
Virtual
brilliant
Letshanaa
Proceeds
Midtjylland
Kalamullah
AW
Aun
ACC
Cumul
Dest
Dai
Gal
HSC
Kor
Kur
Kuk
Krist
Mol
Mass
Norn
Naidu
Persatu
PER
Rol
Rim
Rav
Ricky
SO
Sament
TS
Tse
Tuck
Tchet
Vitting
X70
Yul
auction
bans
density
groom
holes
mould
map
oath
raining
random
ster
sons
ty
taper
turb
##ius
##hua
##west
##Q21
##initely
##anok
tours
##asang
##ilo
##omic
##ayah
##rock
##olh
alike
congreg
##owder
##abet
##abong
##ereh
chill
composition
complicated
printed
shirt
enactment
agile
clues
unsp
unnamed
impetus
Chris
##ighting
disinf
overweight
senators
counting
asserted
##eez
remitt
Shi
##ommerce
conspir
1850
arrog
seconder
mainland
Resid
221
##tedly
signalling
olds
314
##lining
landl
slip
societies
Ard
273
274
272
Interest
508
504
50am
meters
MyD
MyCC
297
Develop
40pm
RM61
MPM
roadside
measuring
releasing
guest
606
Besi
367
564
513
rainy
cooperating
greener
429
542
661
writer
tracks
599
necessity
skid
760
Require
446
pairing
credited
012
clinching
##leges
044
civilian
dispatched
EPL
transacted
misle
auditing
professionalism
jailed
005
Temporary
diverted
freely
Majest
umbrella
Offences
tightened
feeder
Greater
multiplier
MIRI
summary
Ukrainian
highlighting
mobilising
smartph
CBDC
Quest
Agricultural
1959
Husin
mentality
biogas
Value
conversations
##genta
resuming
sensational
Madhi
promptly
Kej
hydrop
accusing
Hilton
##ULU
Mahmood
seminar
negligence
convertible
unclear
evolve
frustration
inventories
inoculation
roaming
bolstered
beliefs
Norhaili
thriving
Iranian
Ratchanok
horiz
assumed
grabs
exactly
satisfaction
Electricity
Marzuk
Marzuki
burdened
Sawit
Fadzil
fingers
Sivasund
privileges
Davies
obstacles
enabler
forfeit
Monitoring
Competition
decarbonisation
Shapawi
Pusat
conscious
PRABN
wheelchair
vertical
##ibrary
sorry
Persiaran
Firefly
intermittent
##Allah
DuitNow
agendas
Coffee
overlapping
detrimental
Ambassador
Malakoff
Nornekman
Persatuan
Samenta
Vittinghus
2A
Bon
Bills
Broad
CR
Coc
Fiscal
Guarant
GII
Horn
Haily
Ik
Kay
Kak
KDA
Les
Lion
Listing
LMS
Laundering
MIT
Nord
Nish
NEM
Ori
Paper
Round
Rendah
SAB
SFC
Titi
UTD
Vaz
Vocational
Waz
WTC
York
Zab
dent
dog
kinder
lauded
pne
ring
rhy
vows
##run
##aved
##food
##yam
##oe
##oved
##phan
##points
##hu
##bas
##grown
##vable
##IH
##wat
##wana
##FL
##GT
##GIT
##Niaga
##atter
tooth
##ioned
##ilang
##stone
##amol
##illa
stag
stall
stiff
##ola
##olation
##uti
##otechnology
##igor
##leks
##imus
withhold
##ullah
##rik
##thm
##earing
composite
##umonia
shadow
reclamation
seal
hass
hasht
##rous
enact
levy
upwards
##away
Thir
Chlo
##engg
##odom
##outing
##obil
accur
locked
##aizan
Stri
Altern
Shang
scare
##ized
endorse
confined
retreat
brain
1870
306
Unesco
enshr
postings
produces
Energ
Resp
Residences
247
chairperson
Princip
Working
planet
refrain
RM52
propag
271
equip
503
reduces
Shahrel
revise
revoke
Kedahan
Kampar
Coron
Chem
Active
Harbour
shortlisted
modules
MPV
doubts
guess
subscri
portals
runner
321
343
344
Putatan
458
354
569
closest
retailer
541
##plan
592
practised
678
430
attraction
740
494
68th
swit
limits
Rosol
regulate
Razlan
specified
organisational
Cloud
Austrian
Austria
bars
Ramai
Techna
##dez
1981
1983
##DANG
Shafiq
forecasting
lighting
##shi
MoUs
exams
Canad
Christie
solidify
festivities
Notwithstanding
minded
mindful
Represent
##ANGOR
predecess
ceased
Does
##iyah
interviews
flagged
willingness
Systems
incumbents
supposedly
walkover
discounted
Luc
casting
Travellers
translates
entitlement
daughters
PayNet
Magistrates
Murugan
mastermin
habeas
errors
scenarios
remembered
undersea
communicated
Venture
API
APAC
backgrounds
emotions
##andeep
rejecting
BERA
concentrate
Sebastian
interactions
Matta
Subramaniar
culmin
roughly
rationale
unilaterally
synergistic
Squash
odd
anxious
cartel
inducement
Volunteers
scholarships
duplicate
teachings
SELANGOR
ROE
Issues
##oubtedly
plagued
disallowed
Norazam
hypermarket
Widad
inclusivity
Powell
mattresses
endeavour
Stanley
Leverdez
database
##Street
corpus
Bainun
PERAK
Piai
bottl
gesture
Kompleks
unfavourable
Tchetche
pneumonia
rhythm
##GITAL
hashtag
Chloe
1am
Aru
Aung
Aiz
AIM
Biz
Bayu
Croat
DR
Dip
Jub
JIPS
KEL
Led
Lamb
Mand
Mafi
MSPO
Nel
Nich
NIB
Opt
PO
Rawang
Sex
Sony
TEB
Yeo
dict
dire
duly
fur
gang
luc
torn
tape
vowed
##note
##des
##tage
##fire
##fty
##lock
##hwan
##hsal
##qi
##qarnain
##jar
##EV
##GI
##PC
##Vac
##anis
inade
##rea
sailing
##amination
##advant
onset
##utely
rewards
##siree
##uli
##andra
##agon
havoc
RMN
##anti
compelling
computers
web
trended
incur
incomes
agility
unrepresented
implied
Thais
parte
offline
flaw
apps
disadvant
Sabb
Asy
reminder
##ounded
needy
Ism
1530
infring
victorious
Perusah
1835
arb
30s
crimin
crunch
Prop
Uni
Unif
vaccinate
myocarditis
Marudi
Penghulu
164
developmental
glass
Leon
activate
25th
saliva
Banks
Khir
downed
visible
310
##ugee
Amran
slog
slapped
imagine
26th
founding
refugee
Arthur
276
509
MyDI
camps
revol
Corbin
295
cheques
Harvinder
PKNP
contractual
RM84
RM66
keynote
breaches
SMS
successes
##tiers
Counsel
subsector
logos
logistical
##intro
323
341
453
758
363
382
letting
425
427
friendship
373
089
489
483
RM900
59pm
414
skies
cleanliness
463
Senadin
integrating
716
Twenty
449
474
##andarin
ECER
915
PBDSB
Medan
Governor
feelings
rolls
831
approaching
barring
licenses
burst
spotlight
enhancements
resolutions
SU5
silence
##shya
SKS
Izu
preced
Haluan
Choi
##marine
Safar
footsteps
MMSP
PCS
Reddy
Sapsiree
Naza
subjects
digest
surveyed
predic
Import
Zulqarnain
intelligent
unscheduled
Edgenta
sanction
milder
babies
PDZ
Suhaizan
Floods
linkage
SPACs
Between
safeguarding
Touching
sacked
SARS
Josue
crashing
##imbab
diploma
Lembing
Persek
Activities
merchand
HRP
blessing
neglect
hammer
CAGR
misappropriating
cultures
escalating
ignore
townships
Tambunan
Ashraf
swiftly
queue
Wakaf
rectify
thinks
1990s
praise
Fairview
odds
Lakshya
sympathy
burdens
kingdom
Ikmalrudin
Exporting
Taiping
Ireland
soliciting
medicines
Fayhsal
SemarakNiaga
conspiring
Sahabat
divestment
Christopher
incredible
##iculum
Polling
hazard
intervene
satisfy
Merchant
Mambong
canteen
Hizwan
ambulance
synchronised
Rinong
pronounced
Learning
firecrackers
philosophy
feedstock
Requirements
hassle
enshrined
Canadian
NIBONG
TEBAL
inadequ
Perusahaan
MyDIGITAL
ADT
B2
Bond
Bayan
Cable
Dun
GT
Gaur
HB
HDC
Iban
KDM
Mang
Mud
Muth
Nin
Nors
Nadi
Oli
Pot
Pitch
POC
Phee
R0
Remb
Rising
SPS
SNC
Tam
Temp
Typ
Util
UPS
WT
Zin
Zimbab
ausp
binding
cord
doping
dairy
fi
hinted
loud
mills
ou
ole
tam
vary
wan
wre
##rick
##kt
##iara
##iques
##upp
##oen
##gate
##vie
##IER
##RN
##erattan
inacc
##itics
##star
##eta
##irr
##acet
##olas
reimb
reintro
##aban
suits
##agen
hair
##soft
compel
##usting
shocks
plaza
unopp
##ipe
##ansing
Chapter
##istered
Indira
outr
overb
button
minnow
##ajamin
interference
Start
##urrent
##ize
preserving
inflamm
##ibol
Azroy
brick
receives
##ronics
##athon
Anim
##ionally
approving
24th
signifies
greet
justified
headlines
Prom
periodic
slander
refund
Spa
Speed
502
meter
MyST
dred
100th
socially
listening
293
290
passports
Syaz
moderated
##iera
risky
doubling
Norway
blown
Polii
subsided
careers
negatively
340
451
457
excel
389
lessen
393
394
378
377
Maslan
occurrence
663
573
485
Yaacob
RM95
598
415
411
RM71
764
waist
097
encouragement
491
493
492
venturing
limelight
778
773
Rosman
##iha
Afiq
882
79th
Scot
Contract
##ovak
Euro
rebates
assessing
enforcing
acceptable
Close
Taerattan
PPA
040
Jamaludin
ASN
withdrawing
threaten
frontline
updating
Yusuf
##shad
audio
##ACP
##apidated
professionally
ecosystems
contrary
quicker
THHE
tenant
robbery
petty
column
steering
Sharb
SPA
undoubtedly
trains
Surau
Suraya
dismissal
##iece
##cycle
reinforce
pathway
Jenob
barrels
accompany
accompanying
##respective
Rohani
scrap
answered
neutralising
classification
boundaries
transformed
transforming
restructure
Dagangan
evaluating
pledges
ethical
AMMB
Higashino
epis
Disease
Willie
owning
preferences
##uclear
sanitisation
Tebal
appellate
compromised
radar
rewarded
floors
Gemilang
humble
hundred
reactions
switching
Thanks
Mutiara
Double
DOE
interpretation
IR4
Geosc
coconut
dampen
Factual
feasibility
LLM
receipt
Durian
Kossan
Perkasa
robotics
sincerely
Sakti
rooftop
deprived
IWK
Virandeep
reshuff
disbursement
Slovak
MiniGP
Pasukhas
BSLCorp
uniqueness
unstable
Gonzalo
enquiries
Coupled
tribute
conspiracy
Vazeer
kindergart
KELANTAN
lucrative
criminals
ADTV
Oliver
Zimbabwe
ought
unopposed
minnows
MySTEP
Taerattanachai
AAR
BCorp
Cai
Dwi
Front
GB
Gate
Gulf
Hab
Hand
Hij
IATA
JC
Jep
KV
Kita
Mi
Mast
Ni
Nic
Nig
Nav
Native
Puri
Pocket
Quar
Ris
Riz
Rule
Suar
Solution
SRT
SFM
WE
Wari
Yog
avenues
bah
bump
ero
fant
grave
gastro
hide
lad
nail
ousted
tireless
##rimin
##ao
##mund
##uwan
##fr
##friend
##lia
##yar
##bucks
##x5
##Bencana
##UT
##DF
##arasa
inability
##ishes
##ayati
threw
forged
##irag
beam
##uto
##igible
##leans
ally
##sip
##owing
fract
##abel
##uni
suited
##ouncing
##uez
centred
comprehen
##uma
##umig
##umni
tranche
shy
contem
##apak
1960
Inform
whoever
upfront
##hens
Chit
Chirag
offload
specially
manual
Indic
##vency
decor
##rows
reliant
Stability
Stulang
regained
teamed
Aluminium
Alpha
Shue
Shared
Shopping
consolation
scams
##eway
##iban
Azhari
heroin
openings
quash
programs
Resilience
259
249
2400
Khor
dipping
diabet
311
justification
justify
chairs
smile
Partic
Prayuth
collision
parallel
images
261
plane
287
rises
founders
RM57
Arch
Arisa
Trace
Muhd
##ussaleh
meteor
topic
##faction
Kedai
customary
formulation
##TAG
200m
Khairussaleh
Harrif
RM85
shortened
403
402
basically
Barcel
capitalised
##tiary
MoA
Norlela
legs
patience
Orleans
##anners
contactless
58th
806
455
loose
357
561
536
65th
544
375
motive
559
577
576
486
talked
640
multilateral
Consortium
Serai
skip
Glob
467
464
Seni
Senate
attractiveness
ventured
schedules
774
997
471
Nga
690
transported
Boeing
decreasing
Appro
recognising
recognises
Claims
##luent
barely
pilots
viability
balances
separately
misuse
precious
slowed
Temangan
Sepak
issuances
footfall
Faris
adjour
Relig
incentiv
Danajamin
summoned
##EMIER
calam
RM134
Kamaruzzaman
##ATION
Muara
mechanical
ratios
##egeth
arguing
interviewed
belongs
Permas
Jenis
furnish
Everything
validity
Paloh
displaying
removing
adaptation
Official
catering
Donell
IMR
Murad
privately
pillows
PREMIER
Consultation
Sivarasa
Angkatan
Kumaah
administrators
Domino
backlash
Likewise
Manufacturers
Luno
escalation
scientists
fraudulent
ignored
Ceres
Tambun
Yakub
queen
kidney
Procedures
streets
possessing
Fuad
substance
Serbegeth
earthqu
magnitude
Taipei
InsyaAllah
inevitable
Kundasang
alarming
Nabila
drafting
inherit
downgraded
cinema
intimidation
CHHB
inequal
##enthran
sailors
semifinals
Francis
dwindled
dissatisfaction
Nagaenthran
##electric
Analyt
Individuals
MIHAS
Marshall
contraband
Residensi
Diplom
Sexual
Sabbaruddin
Asyraf
predicament
inadequate
Barcelona
Kumaahran
5m
AH
AKM
ATC
BI
Bers
Bong
Boh
Beg
Beh
Baba
Call
Candid
CMS
Clear
Cinem
DRB
Danny
Eric
Ebit
Fep
Ford
Fron
Fakh
Get
Gand
Gading
Hid
Hairi
IG
Inder
Iman
Ivan
Jemp
JKN
Kemb
KFC
Lum
Luk
MDA
Ped
Pawi
PSS
POS
Rever
Raman
Rocket
Sure
SCI
Sama
STS
Tand
UKM
Wage
Wijaya
Yasin
Zair
afl
bisc
cub
cues
cabin
dimin
jury
kios
lobby
ru
tyc
##nah
##kill
##sin
##tian
##fund
##losed
##ysi
##hapol
##gor
##OD
##HUS
##VA
##NI
##inction
##enas
##enitude
##atures
##edah
##edeer
##alid
tol
inex
ineff
##isi
##isite
##icc
##ichel
##ayar
##accept
##vering
reins
exception
##oped
degr
advertise
trounced
shaping
recall
sewer
incurring
enrich
##astically
resorts
upst
clogged
CoV
unwa
##ella
##ellors
##ccess
##ansa
flats
flatt
##seas
indef
abrupt
Indo
Indians
twin
outl
##achment
amending
##obb
Dechapol
##conn
helmed
##ungle
Alt
Ship
preserved
endured
##aredness
deplet
1890
305
Self
caring
Keling
startups
advancers
deserved
255
traditionally
persu
Atl
##uchi
collided
paracet
finalists
Plenitude
homeowners
foreigner
refine
##ergi
Arul
everywhere
50m
Accordingly
responsibly
manufactures
408
Brice
youngster
60th
strengthens
popul
optic
Putih
584
353
356
Limau
421
424
##parency
Preliminary
481
##places
Sejahtera
directives
630
##affar
RM73
dams
435
437
432
selective
498
715
proceeded
440
newsmen
Rosh
RM104
teleph
Earth
convict
699
Kuah
##uggling
##SMA
##ovic
Transparency
Koreans
015
stakeholder
SESB
Sinis
Zahari
stockp
066
Overseas
recommends
Defending
circulation
precision
##ventions
Paulus
steer
Christian
punitive
multipurpose
borrowing
Carnival
Takah
1970
Aminolh
Survey
MOHE
RM116
Pertua
billboard
recruited
recruiting
dependency
deduct
Edmund
bearish
irrespective
Rohaimi
bitcoin
Insa
corrected
translating
Kasim
muted
Officers
Apec
grandmother
geared
complemented
Murabahah
constructing
copyright
dilapidated
Loong
slew
reliability
Kitang
##cotourism
obligation
devastated
mergers
InfoBencana
Eleven
advocate
downpours
quantum
characteristics
rigorous
NEW
treasury
voluntarily
cultivate
induced
Triang
tertiary
adapting
Lanas
reaffirmed
prevalent
TEUs
MARii
injections
purely
cameras
laptops
Sweden
##enteritis
tears
Jimmy
siren
DFIs
mangrove
Vehicle
screenshot
CBDCs
Rabih
Occupational
Mousedeer
embroiled
Norde
switched
overbought
AARHUS
Jepak
Fepo
Jempol
Rocketman
afloat
Aminolhuda
930
Au
Ame
AIDS
Bansa
Cam
Cases
CASA
DU
Das
Event
Geet
Hak
HOC
KA
Koo
Kav
Kump
Ly
LC
LH
Nothing
Ob
Powers
Rai
Sob
Sale
SIR
Sarik
TT
T20
Zai
bikes
cess
coh
cafe
fung
fier
footh
lun
mirr
nas
sits
soph
tapping
##ras
##aults
##cass
##mon
##matic
##dict
##ford
##lun
##bu
##bun
##will
##PK
##NT
theat
##atics
##arang
##arana
##asy
##oum
##econ
##icides
sadness
##urches
##urbed
##addin
##tering
##teries
stell
staged
beans
##otic
islands
##ulam
##riors
##agan
##sof
choc
notched
shower
leather
##aware
Coaching
unaccept
repro
reprim
##aires
accret
##eke
interventions
wellness
Stamp
remuneration
Mohan
Shield
##oking
##ounding
##avaran
curriculum
highs
arises
Commander
submarine
Unt
##azquez
##afri
##ologically
Srikan
carcass
##ukroh
queries
232
23rd
Khadi
319
313
greed
Ataya
corn
headache
##ooted
Prim
Platform
266
drives
objected
obviously
Manuel
refr
refusal
Access
Suet
methan
MyF
705
Shahrol
drastically
Corona
urges
passionate
Khairuzzaman
cheated
Syaq
lately
404
roadbl
taxi
breeding
PhD
Barat
happiness
instability
##ireddy
Engk
331
333
452
##kuai
debating
519
386
90th
422
398
553
##ilians
Peace
RM72
Serting
certainty
499
683
682
reviews
47th
coalitions
hostels
914
011
hearings
Sinopharm
Telec
020
##KMAT
Puavaran
fairness
anticipates
Subs
divert
RTB
shelves
poorly
Bornean
Mengk
negotiating
Trafficking
walked
harsh
PJKM
honorary
mobilisation
##bochi
CBU
Suria
PLKS
disclosures
Maximus
sponsored
##uyang
thrilled
Direct
Makkal
triggering
Kiulu
Tangkap
bias
Starbucks
positivity
falsified
clashes
comparative
Chiang
Kasumig
dragon
towing
Bulg
Shahriman
CCTV
Ganesh
Beta
reckless
PSU
incorporate
sisters
constraint
pullback
electorate
Birch
Lebir
Helmy
Velazquez
wrongdoings
Jaguar
Masterplan
mounting
Artem
unveiling
Weekly
Fariz
colourful
biodiesel
navigating
rationalisation
Zhafri
Taliban
custodian
archery
Prasarana
monetisation
Jambatan
inevitably
horns
buoyed
ESSC
Hidayah
Zulfahmi
Rankireddy
##aseki
endangered
BFood
wrapped
nutrition
uprooted
skyrock
Steelers
Epidemi
etc
outdoor
Arjunaidi
misunderstanding
Lebanon
pioneering
Renewable
suspicion
overcrowding
GHG
Stefan
Preparedness
CCID
LANGAT
Daibochi
misleading
Wazir
merchandise
Gaurus
dredging
Scotland
fantastic
Particip
Analytics
Frontiers
unwavering
paracetamol
Sinisuka
Takahashi
LHDN
Sarikei
sophistic
stellar
accretive
Srikanth
Khadijah
CoronaVac
Syaqiera
Puavaranukroh
Kasumigaseki
Aq
AZ
ADV
Bom
Banjir
Ca
Fuzi
Gad
Gag
Gual
Germ
GIL
Hen
Hic
HULU
Iv
IF
Jas
JPM
KI
LZ
Lav
Labor
MUS
Magn
Michel
Nir
Nie
Oman
Ocean
PGB
Row
Read
Sit
Sus
SAS
Somet
SIS
TRI
TCS
TFP
UTM
VL
Vort
WF
Wind
averaging
akin
bip
bubb
dial
ec
eC
filling
gates
gra
laps
launder
mm
mine
maj
padi
rar
rife
roped
til
tipped
wire
##rom
##rators
##aa
##nb
##kle
##key
##die
##uice
##tec
##oos
##pro
##gal
##gol
##SSB
##vard
##TB
##TG
##Azam
##Baki
##jin
##CE
##HM
##HC
##WC
##inian
##onics
##atible
topping
inact
inno
##ito
##ido
##idikan
##ouk
##ounder
##omach
##rets
thick
##etime
##amatic
##ado
##irts
##mentioned
stomach
##olvency
##utt
##ectives
##otion
reap
reimp
Theta
##emah
##tha
##andran
ankle
##ivir
##oples
chat
nep
compact
compelled
adex
admitting
##occ
##oche
trending
shoes
recession
seaf
expire
exposing
exporter
##berdin
allud
clause
clips
invalid
##epers
addicts
Chon
offender
indoor
outflows
intra
##veness
##achim
countless
decider
relied
RM140
workplaces
Stay
##ideen
Sara
softer
##ishi
11MP
economically
##oyage
Isabel
sheets
##ibia
##avier
##avali
locality
noise
Permanent
deforestation
subcont
helpers
Process
Unimas
##azzam
Consequently
Cups
quartet
Enc
deserving
deserves
goodwill
diox
techniques
persever
Ambank
smel
booming
Prat
slugg
268
physi
pressed
entourage
Spec
27th
50s
##indo
handful
Nasrul
FY24
drills
dramatic
1000
##comings
impacting
405
406
seasonal
Brand
explos
explored
portable
BAuto
346
335
336
454
368
366
##atories
reopens
514
premise
Nova
625
62nd
419
769
614
Teacher
Teachers
Warriors
Sena
Zainab
746
reasonably
analyse
070
##limited
880
795
Scam
Scania
988
959
aspiring
Transfer
replanting
propositions
960
SCGM
channelling
1986
breaks
Liow
Liang
Hospitals
disputes
distributions
##menistan
Crisis
KPower
curbs
##cribing
Akh
Akad
Akberdin
audiences
kickstart
Safari
MySJ
prayed
spirited
violent
MNCF
Sharif
departed
CEKD
installing
essentially
Hassanal
Bangkuai
expenditures
MILO
Repair
Takraw
deepen
generator
Turkmenistan
Guid
surrounded
Mufti
Outperform
emphasising
RM187
1955
thrashing
MOU
HSS
##rafik
Idrus
Lui
Advoc
NCT
fulfilment
racquet
substantive
Timur
pharmacy
Joachim
hovered
Maul
Upko
dominance
reckoned
Joshua
Westports
MSN
warehouses
Kapar
Help
Zamrose
neglected
SJKT
Wellbeing
uncover
lecturers
quantity
exempted
##urugan
BATU
encounters
concentration
##fields
spearheaded
Experts
memory
parameters
Bidor
sidel
Various
Maimunah
Namibia
Pendang
Pendidikan
Popov
MRCB
Interpol
Interpretation
Regardless
sediment
Philip
Lagenda
##ippers
Deepavali
quarrying
embarrassment
answers
creativity
instalments
razor
fragile
troops
rejuvenate
DIY
Jessica
Satem
kelalan
contingency
organs
Enhanced
whistleblower
Carsome
garden
Jagdev
Eyob
harmonious
covidnow
Journal
Cumulatively
skidded
Guarantee
Shanghai
propaganda
Nicholas
arbitr
Habib
Nigerian
diabetes
adjourned
earthquake
Reverse
SCIB
Zairil
##ccessful
telephone
unacceptable
Hicom
eCommerce
rarely
##AzamBaki
innovate
dioxide
sluggish
830
Ara
ATech
BPS
Bubble
B73
Cue
Cub
Celeb
Craft
Cargo
CFA
Dal
Ew
Esp
Ess
Ecom
EMS
FL
Fab
Gi
Halm
Hizam
HGB
Ipm
JEL
Kat
KAB
Niz
Nge
NTS
NSA
Nyl
Pest
Podium
PGA
RY
Rafiq
Tex
UV
Vic
VOI
Wi
WA
Xi
Xavier
Zamil
aunt
bunch
ho
hack
hiding
hiking
kara
lenders
library
mam
powder
rhe
rides
sank
sections
tumbled
tangible
ul
wiring
##rase
##cak
##cels
##mate
##iago
##iandy
##uis
##uition
##lor
##lot
##osi
##build
##qal
##vance
##Is
##YB
##GL
##Guru
##NO
##alised
##entless
##eches
##omac
##aylo
##rof
sack
##urg
##adays
##aculture
##utuan
Malek
##ppan
20am
##unist
##agons
##artisan
##antage
##oco
Inquir
allerg
click
union
unear
unhealth
unaware
Chu
spans
underperform
newer
twenty
##erik
playoff
##ajar
inters
##duced
10km
matured
Sabahan
preservation
##assing
evolution
capita
helpful
transferring
levelled
##ystemic
carnival
Forced
improper
##efly
poster
opposing
Leading
desp
MAN
visa
KLANG
RM450
paral
parcel
parcels
conclusive
homegrown
Juni
courtroom
507
##ussions
meted
Fintec
##ropol
##APP
revived
accountant
298
292
Agents
Synd
Syuk
Adz
RM83
shortcomings
hospitalisations
successor
potentials
Norrid
Month
##annel
speakers
587
warming
802
Lima
dealership
Generation
judged
901
426
array
acquittal
wrest
649
413
RM74
RM76
insist
##ometric
Glomac
Andy
710
White
441
expression
sideways
convocation
Metaverse
hostile
CP1
fireworks
817
championing
##INS
Medac
895
896
863
860
965
SEG
designer
874
lockup
840
1982
Rahmat
cardi
facilitation
Household
Funds
seizures
PUS
principally
MNRB
Opec
overseeing
Buff
Zakiah
PCDS
RTBA
Shares
Christians
Belia
Belik
RM126
MBSP
consultants
Notably
Smuggling
MEF
##helmey
Surat
Haniza
##atini
bottle
dismissing
Businesses
RM185
dependents
##uyers
raiding
##LAI
Hybrid
verdict
occupants
PropertyGuru
exhibitors
Zurich
elevating
Bunga
antivir
1H21
smugglers
PAFA
Muniandy
wisely
academ
SmartTAG
entrenched
Angk
Using
teenage
MSD
independently
Motorcycle
Endau
fruitful
troup
MUAR
sibling
communicable
perspectives
overtime
sweeping
deceived
Shahelmey
Wellian
hurdles
Kunak
Lamfuss
Romania
anglers
royalty
habitats
intensifying
Dipert
Hokk
linger
prematurely
observer
Larut
Discip
Victoria
Syahrin
strokes
Wilfred
Jamek
KWAP
absolutely
noble
tremendously
replenishment
pedest
authenticity
Ireka
disqualified
buoyant
Clean
camera
Regarding
Microsoft
nurses
OPEC
renovation
bazaars
##lindungan
rallies
Jemie
Analysts
recycled
Rasmus
ancest
PCCS
fronts
commemorate
adventure
Passenger
crippled
Shazrin
MALAYS
##pacs
##graduate
tougher
elaborate
Puncak
bureaucracy
remittance
Persekutuan
UPSI
auspicious
offloading
sewerage
cessation
Mengkibol
TangkapAzamBaki
Gagasan
TRIIS
seafood
subcontract
MILO®
B737
Cuepacs
Ecomate
Ipmuda
karaoke
rhetor
unhealthy
Norrida
MALAYSIA
1km
3m
4WD
Achie
AHB
Bari
Bock
Bots
Bert
Cain
CDM
DM
E2
Eve
Eti
Fri
Fah
Fans
Fajar
G7
GD
Gallery
HM
Jef
Lina
LPT
Mir
Mandarin
Nech
NATION
Pra
Rul
RKMAT
SV
Sith
Samal
SING
Sury
Sections
Square
Tn
Tz
Tuang
TKK
Toward
Zhe
Zero
bung
cab
cuc
dust
fitted
hole
lively
mel
mol
mish
muse
nat
nose
nights
ocean
pal
ply
pets
raging
renting
systemic
tuss
##card
##ease
##kam
##mine
##uctions
##tty
##lar
##pn
##bain
##bag
##Sino
##Tok
##AI
##zamb
##just
##EX
##wing
##Ds
##hend
##inid
##inced
##ono
##enak
##orks
##alom
##arah
inaction
##itang
##ashes
##assies
##ilated
##idel
##ecified
##urutera
##irms
stal
beaches
rear
##ateur
alien
##ithold
constr
heed
##ulin
##ulates
wasted
##rij
Malindo
##abs
##abalan
##andariah
exists
##una
suicide
##dayan
##antry
prag
trash
shore
contended
hasn
incidence
2027
##ryan
##apat
enemy
reskilling
allied
unrel
uninter
##duce
inviting
##ailed
##anship
partial
governed
Chancellor
##ubishi
##imee
undermine
##oden
##ancecon
dishes
dispar
amm
##encia
pole
poly
poles
polymerase
peg
Asf
##embang
##itte
soap
11x5
##ews
##eward
endurance
##egas
novel
Perbad
1810
buck
##ianathan
myAS
Forensic
childcare
Conduct
Concepts
oppose
##ductive
MAIK
Khaw
visitor
312
qualities
boom
boasts
##linik
phrase
betterment
Manager
entries
RM59
Arbain
ordering
##prom
Myvi
##CCOL
701
704
Shaharuddin
formulated
##APORE
##ingga
Shetty
Deer
401
407
##ceptions
RM65
RM64
moderation
employing
taxed
capitalising
raises
Mozamb
subsectors
Elections
52nd
contacting
33rd
##odyne
80th
45th
Investor
Hopping
embe
embed
908
##ilitation
729
728
726
hardware
666
482
editor
Seek
Season
738
596
628
639
multic
RM79
766
Teaching
438
433
436
43rd
Sendayan
718
685
684
680
829
825
keeps
788
990
442
Kenya
Disabilities
072
convinced
886
792
corporates
indicative
Applications
866
016
873
striving
strives
settling
trusts
combining
exercised
exercising
carded
sometime
EPU
FBMT100
Institut
auditors
Iskandariah
Specialist
praying
footage
##ordinate
##ART
banning
CanSino
Sharing
adjourn
Pekat
##eva
Nazrin
Demok
embassies
MBSA
##quee
messaging
Reports
charitable
Comb
NRW
Muazzam
disposing
Hotline
unsafe
reinst
Siam
Valencia
motorcyclists
Advancecon
resistant
Keru
Keroh
1966
Charter
collections
Kuljit
linkages
Letter
SARA
functioning
complexity
sensit
adoptive
mitigating
flew
Better
rampant
maids
RM219
Angel
jurisdict
sleeping
MYR
devastation
Bestari
##ramaniam
afar
Kunaratnam
apparel
Fisher
##balance
assemble
sunny
counsellors
kidna
capturing
rectified
Airbnb
Misbun
Experian
fortunes
MyKRIS
Mitsubishi
elimination
substation
setbacks
Zhang
Device
cryptocurrencies
NACCOL
replenish
outperformed
JobStreet
tailored
traumat
gymnast
insulting
BPB
Kundang
unreason
GML
Ikhlas
drafted
Aerodyne
Cenergi
laptop
simplified
Rehab
Maktoum
Kolam
altogether
poisoning
Vinod
irrele
Yazid
TikTok
envisioned
DHL
JurisTech
Pongal
Portugal
GLICs
Yulianto
unspecified
SABAH
Merchantrade
Rembau
reshuffle
Chitwan
Candidates
Gandhi
Indera
Ameer
Geethan
Stampin
ESSCom
sophisticated
Michelle
Vortex
bipartisan
bubbles
Akademi
Halmi
Syukri
Botswana
Cainiao
SINGAPORE
TKKR
museum
##itholders
Perbadanan
myASNB
Mozambique
embezz
4am
4th
6am
Avenue
Base
Bey
Basin
BCM
Bryan
Civ
EL
Esw
FP
Fifth
GS
Giant
Hat
Happy
IGB
Juh
Kyr
Lines
Mort
Masing
Mega
Murni
NAP
Ox
Pai
PAT
Pudu
PFAM
Rian
Ruk
Rani
Rovers
SF
SSB
SAC
SSA
Sayang
Tin
Tet
Tag
Tara
TIM
UTAR
View
Vantage
afore
aren
aerial
bra
cher
cous
coke
dine
dashed
fert
fitting
gam
giants
hug
humb
hicc
jitter
kes
lump
mock
ng
nood
nails
pine
trib
vax
walls
yard
##rina
##rayed
##nif
##nold
##cend
##may
##uper
##uoka
##fi
##fare
##lawful
##hol
##hang
##budi
##UP
##wani
##KAN
##JC
##oning
##atul
##esa
##esc
##asc
##iler
##eca
##etec
##veez
stole
staging
##uture
##sius
##akmur
fries
##abakan
##ppy
##chtar
##udah
##antic
composed
computing
trouncing
plug
contender
##apes
##iey
expatri
leap
##allim
##awei
##ualang
##urement
unle
unvent
unitholders
Thian
reporter
spar
spell
appl
outings
Minimum
intr
amicable
monies
##manned
##obs
relentless
peac
Asajaya
Declar
RM115
Shu
considers
scal
##ibank
Azim
deported
Dragons
Peru
Perlindungan
1855
winless
Committees
303
Unlawful
nationality
attire
RM230
netted
beloved
carmaker
Forward
gloom
quo
quot
##ensed
##ensely
knife
22nd
231
healthier
signatory
Amal
graph
grabbed
##nergy
periodically
landowners
slalom
empt
Manama
##atient
refining
RM53
prepaid
nearing
50pm
Suffian
Jalur
metaverse
MyEG
703
Parade
Parveez
Sofian
Kedua
factual
Chemical
296
Deo
passage
Synergy
shortness
forwarding
Century
Baram
syll
portions
Mahar
powerhouse
speeches
considerable
325
34th
realign
757
358
351
excuses
exclusively
Assets
##SBK
511
Genetec
Hamdi
AFTER
370
554
weaken
57th
RM91
RM96
730
593
multimedia
767
611
Teik
differentiated
differentiate
677
waited
748
Anderson
Twin
Rez
771
RM103
Disp
472
978
973
Merb
branded
814
987
indications
Bakti
Transcription
89th
Compared
018
designing
832
870
##ITC
strikes
barrier
##isclosed
personality
943
944
observ
Jamali
seriousness
939
Producer
province
holistically
Puad
Rajag
Akane
Akhtar
evacuating
007
inspect
issuers
speeding
definitive
undertone
colleges
Sadong
bodily
undisclosed
MBS
objections
Hassim
territorial
Judiciary
rebounding
retirees
narr
##2030
##roads
transparently
Distribution
Suri
deepening
Hanif
generic
RM133
RM132
Muallim
aspires
Rasuah
expediting
repayments
narrowing
convene
convened
vacancy
rescuing
awaits
racist
Winning
1961
Kasap
punishments
literal
towels
Return
paint
premiums
Kalabakan
catchment
congested
Coastal
marriages
textbooks
coping
copies
ITF
RM332
layer
Santiago
languages
prohibit
compromising
Builder
Leaders
Pauh
Riduan
burnt
Ident
##enecks
Model
Elements
Retailers
Collabor
deceive
##ytaylo
congress
Responsibility
Player
Sayaka
Sayuti
deliberated
deliberately
JAK
JAKS
Certified
autonomous
Yakura
nerves
ceramahs
oversub
congratulations
Citibank
homologous
blanket
Rengit
blaming
RP3
epidemiologist
cooked
Pochtar
Laks
overcame
Variant
stringers
BUK
weapons
finger
underwriting
underwriter
lungs
Mariam
trauma
enthusiasm
disseminating
hornbill
chaos
Ketereh
Budd
Budiman
Swedish
OEMs
Sipitang
troubled
Maktab
overturned
Argentina
Physical
outnumbering
electrification
rungs
DJSI
accredited
eateries
goalkeeping
cognisant
ravaged
aggravated
Jusoh
Kurup
arrogant
Kejurutera
Sivasundaram
Ikram
bottlenecks
Ledang
Rizani
gastroenteritis
inexper
ineffective
Kumpulan
nephew
sidelined
Dipertua
Hokkien
rhetoric
Friends
Nechytaylo
Towards
##rijk
Rehabilitation
Beyond
aforementioned
vaxx
unventilated
Declaration
Pochtarov
Kejuruteraan
5am
AB
Ach
Berm
Cos
Cop
Cina
CSA
Cemetery
Down
Diver
Dool
Dalam
FOR
FIN
GFM
Hard
Host
JL
Jaw
Jew
Km
Kort
Kia
Keh
KANG
LS
Light
Look
Lew
LCS
Mr
MRA
Maur
Mechan
Migrants
Nair
Otom
Oden
Pil
Pok
Pandemic
Ramb
Ranger
Sag
Serg
SPP
Sien
Ty
Vape
Vios
Yad
Yatim
Zub
bite
bourses
cattle
dwell
hoc
jur
jungle
kle
mu
nick
pund
pocket
ri
tips
wires
##eum
##ket
##mency
##ienced
##uum
##fielder
##offic
##pak
##hand
##hard
##bid
##buyers
##green
##vigor
##AD
##zaman
##UK
##wear
##Good
##WI
##heed
##inqu
##inces
##information
##ensively
ini
##isal
##icon
##oms
##omics
saga
##urances
forensic
##otyp
##igali
concepts
prow
##ulge
Malawi
2040
##chor
##child
suffici
##agic
##aguchi
##orting
RMT
churches
##antara
weighted
ads
contend
1930
resili
leaf
Coal
implying
importer
repeal
##hentian
##ubramaniam
abuses
outline
##liza
disgu
commute
##acks
##arians
##iks
##iked
Asaster
Aswara
##luding
##exox
poses
Store
soar
Shiz
Onexox
Janei
followers
medication
evasion
##undu
shoulders
Perhentian
##space
1490
Prosp
RM240
genomic
acid
projecting
##ickfields
carp
backs
quoting
profiteering
demise
downs
KLBA
traditions
Terap
believing
smoot
Melan
##ooting
traveller
slashed
homebuyers
Manap
refinery
Arham
##prints
Soffian
##CIS
Corps
Chef
listings
sustainably
policeman
specialty
RM67
Brickfields
authoritative
608
consuming
##bridge
##amboo
##ysen
donors
##forest
328
327
337
809
togetherness
##working
538
embank
903
versa
397
724
552
086
Seu
Opening
734
stays
644
412
##affa
673
672
468
743
selecting
497
##selangor
prepares
Reform
776
478
0781
lifetime
985
Describing
##ovo
PBAPP
choppy
868
shuttle
classroom
928
striking
personalities
844
Technically
burial
##DAH
024
provinces
breakfast
lining
Hajah
06am
complaining
Digitalisation
bagging
Institutions
##istrations
Safee
tense
tenuous
depository
MRB
RM123
SPR
MBKS
Semarang
objects
trainer
installations
##ommodity
Yoong
Khairulnizam
Multi
Jerome
Flat
Wallet
##regard
postponing
Midfielder
battalion
debutant
Sudan
emphasises
Doct
regulars
OCR
Edar
specifications
mortgage
IBN
documentary
converting
clouds
Americ
minimising
channeled
modernisation
Pelang
Retire
psychiat
uploading
Anyone
restructured
MRT2
Keong
extremist
habits
Hilux
milestones
reputable
underwater
Naroden
laying
prohibition
Student
Haiqal
gratification
Yunoos
Kadam
golfers
Tasek
backlogs
wallets
RCU
sweep
Basri
advocating
Jonathan
escalated
swimmers
eagerly
secretaries
practitioner
Nanas
deliberate
Duta
hesitancy
cornerstone
##radiation
hydroelectric
weightlif
kilogrammes
reversal
Geopark
SWT
spearheading
fluid
fledged
fabrication
fabricated
BKC
sympath
describe
A321
clocking
encompasses
encompassing
##umptive
Mexican
midfielders
stealing
reinforced
Yamaguchi
Juw
cinemas
malicious
Liberty
##oshima
jackets
manipulation
##rology
answering
bazaar
KEDAH
unavailable
dormitory
tweets
dishon
adultery
Mulia
revelation
abundance
absorbed
cosmetics
Selvaraj
Freder
Gurdwara
unseeded
Dzulkefly
Majesties
Energia
POIC
disadvantage
precedent
Pitchay
waning
tirelessly
##frame
comprehensively
Globally
Clearly
cubic
indefinitely
foothold
chocolate
methanol
explosion
Esscom
TnG
constrained
Demokrat
kidnapping
irrelevant
Civic
Collaboration
Dooley
Kortrijk
Otomobil
klept
Asastera
Shizuoka
Janeiro
950
Around
AGE
ARI
Bab
Beb
BKM
CL
CK
Cemp
Doping
Ewe
Ehsan
Fuk
Ferr
Fadi
Fellow
Hem
Ida
IOC
KS
KDN
KAF
Late
Large
Mum
Mary
Mater
MPS
MIN
None
NFC
OOH
POR
Sures
Save
SGB
Tor
Toto
Tualang
UMP
Way
Zen
Zanah
bitter
brown
blind
caf
cuis
folk
myst
py
pile
pock
rab
rend
roy
sights
tah
tables
umm
waf
##ril
##raya
##aard
##avers
##aque
##eason
##kai
##iest
##iya
##sec
##site
##fold
##farm
##lon
##yaf
##oza
##oitte
##pan
##jam
##2u
##wr
##GF
##KOK
##WT
##onial
##athetic
##orer
##aliza
##albudi
touching
token
##aris
##arch
##inge
##itiously
##asp
##icate
##regan
##stro
##stick
forwards
forging
##amount
##amurugan
##tersea
##acious
stature
##otech
##otics
##igu
##imet
##sih
Themed
probed
hefty
##ully
##ulife
##aha
##essed
sund
##aguna
##ourcing
##umo
traps
tragic
reclaim
2028
reson
Heong
##ilee
Cov
unions
unres
uncom
unlimited
impass
repech
Chiong
spite
spiked
outwe
prefers
preacher
disregard
decisive
interrupted
interconn
wells
regaining
teamwork
##ishna
scra
scaling
dov
presumptive
preseason
##rible
1500
businessmen
Azur
Azwan
Azahar
Azeez
growers
depended
brack
1880
30th
substances
financed
##othy
##otho
distinct
vaccinating
##icken
somehow
Env
advises
MAT
Khatri
signified
assistants
testifying
Prison
situated
empowers
Manulife
foundations
Space
Arr
opportune
Accel
Muhaini
metall
revis
placements
##TAC
Check
294
Khairi
##NGAI
##NGKOK
turnkey
Emico
40s
succumb
relevance
succession
604
centreback
differently
345
sells
warn
381
428
391
652
72nd
558
665
wrap
Satellite
088
083
Seong
labelled
623
626
633
Consider
Serene
insider
675
469
462
098
745
717
688
##amalat
freeze
779
995
444
479
475
793
Razif
811
692
696
##adiene
857
954
renounce
891
969
Panchor
017
013
rollouts
plead
838
ruler
immense
043
SUNGAI
favoured
gotong
untrue
##show
circulated
Akif
Akalbudi
Izani
Exposition
kickbacks
inspector
inspiring
Tenom
Mustaffa
MNCs
PCM
Release
associates
SPV
Goal
consulted
Located
ideology
harbour
Empower
educated
Careline
probabilities
Flora
PLS
PLC
##ustainable
deepest
##regular
generators
Muamalat
hectic
##utenant
Solihan
Pertama
Rasheed
advisers
argue
Waterfront
reinvigor
Strong
criticise
upsets
Huawei
furnishing
vacuum
walkabout
Professors
biom
Emeritus
irradiation
irregular
RM165
Mukim
Advanced
NCR
batteries
neutrality
defamed
unfold
unfounded
Kepayan
Rumours
Lingam
sensation
Baharu
manifestation
Izzaddin
Battersea
honourable
coffers
Deloitte
pipelines
RM242
Zulkarnain
stretches
epid
Ampuan
stabilised
musical
Consultative
declaring
Booster
sanitary
sanitiser
pumping
prospectus
Santokh
SERI
envis
paved
Kader
oblig
reunited
criticisms
mountain
sacrificed
misappropriated
Thankfully
escalate
Greatech
Kubor
swimmer
Playing
researcher
Awal
Awam
CITF
fluctu
encountered
overflowing
Fortune
interactive
congratulate
decentral
UMT
sequential
culinary
dubious
diagnost
penetrate
chalet
LPGA
cultivation
BigPay
##worthy
Tajik
##fitri
Depository
legislature
Dahari
Factory
Lestari
Serbaguna
Feizal
outsiders
privilege
Palestinian
Thanabalan
gymnastics
MAREA
obstacle
motorsports
reinforcing
intermediate
Jambal
##awatts
perpetrators
Hidayat
reinstatement
sincerity
lagging
styled
Sugar
Mardi
Educational
hedge
Bekok
condemn
photographs
exhaust
demographics
EAIC
Signature
Auditor
Ultimately
unregulated
unregistered
Suzuki
Mendoza
nurturing
corridor
Yonex
aquaculture
civilians
pesticides
Pangkor
unwanted
Sathianathan
Jalaluddin
Rimba
disinfection
MyDigital
horizon
Lesotho
MITI
predecessor
Croatian
Optim
dictate
HRPZ
Spaoh
episode
Geoscience
Mastura
Kelington
Sometimes
tilted
Guidelines
Inquiry
NATIONAL
Ruler
Samalaju
naturally
uninterrupted
Keruak
jurisdictions
jittery
syllab
narratives
BUKIT
Buddh
Odense
RCUIDS
Cempaka
Suresh
royong
ummah
##regants
5km
Aur
Aure
BT
Bre
Bru
Cur
Cry
DG
Dza
Diaz
Dabong
Elias
Fland
FDA
GUA
Hoy
Hours
Halley
Hope
Istan
Jade
Kus
Lou
Liv
Lek
Lind
Laun
Make
Meera
MSBK
Nob
Nenas
OM
Pur
Pear
Poon
Pizza
Ramp
Reb
Range
Rachel
Sog
Sai
SRA
Slim
Semiconduct
Tb
Tomas
Timah
Use
VC
Vou
Vere
Wr
Was
Wol
Woo
Wales
XI
Yas
bom
bog
billing
bamboo
cake
crafts
fits
grocer
ice
kw
kay
merc
mooted
nurse
rif
rug
sorts
sway
scept
sultan
tant
tiss
tries
wading
yang
##rk
##ruddin
##aik
##nu
##nor
##nia
##nable
##cow
##kat
##makmur
##deal
##iative
##sa
##tlement
##hic
##bles
##bills
##buri
##qa
##via
##IG
##jek
##Con
##2G
##KB
##DG
##DK
##JAH
##Jobs
##hell
##erting
##enang
##esi
##oro
##oria
##alai
##alone
toe
toast
topple
inbound
##idas
##reysen
##eld
##roport
saves
##ader
##adia
##irs
##aca
stig
##uts
##otage
reeling
withstand
heated
##ulc
frame
framew
##rious
##ppers
##angau
##unal
anger
sued
church
chamber
compatible
##umen
##umulation
trap
plate
inculc
enorm
agri
ordeal
##endra
##ifier
##ointed
clad
cloth
unified
unaff
unwell
unmanned
impress
importers
invade
Tham
flower
abetting
undermin
strata
sensible
##obile
assurances
##arga
investiture
##ptions
Stage
regen
registrations
Alfian
##weet
##issa
scand
##owner
presently
##egal
retr
evolved
##raer
brunt
brigade
crushing
Depart
Ung
distinction
weekends
belt
nowhere
Anbal
careless
profound
Enaut
demol
advising
Khim
Khai
##AMAT
visual
deterr
persisted
Amih
Amenities
correl
headm
Prest
competency
competencies
phased
clemency
Accounts
##OPC
airselangor
handic
##ften
Sutera
Suites
metrics
708
Parent
Soong
Industri
29th
Acting
Agnif
Syura
Harris
reliefs
nonetheless
RM69
authorisation
guys
SMART
Phoong
Noredah
consume
blaz
instil
instances
Allo
subscribed
Ellis
##ysed
Maha
##anna
348
808
355
##eringkam
module
movie
387
injected
versat
##ycles
greenfield
Pasu
654
556
66th
Satar
085
##played
addresses
631
critically
damaging
insulin
765
761
Glen
431
Senegal
099
094
711
712
686
##TSA
bookrun
78th
nominate
074
977
CPOPC
889
Razly
Scre
035
984
grounded
852
912
Bakke
Transform
Regiment
amends
869
machin
SCB
appreciating
obsc
burg
938
933
trustee
combine
069
coupon
Darulmakmur
curt
curtain
Akbar
Balar
disrupting
Beach
Assemblyman
footed
Profession
briefings
originated
Paduka
shelf
penalised
RM124
Nazrul
prosecute
Krishnan
MED
syndrome
widow
chartered
Additional
educating
Felix
wishing
Hanipah
generous
Cola
Presidential
accomplish
Solgy
RM119
liquidation
##iye
##usamy
Aidilfitri
Mazda
deduction
##uyama
belonged
provisional
MOTAC
Tuah
Hyd
fouled
##onomi
mildly
Emerging
motorcyclist
disciplines
battered
##ushima
Jelai
clouded
Jinq
Lieutenant
transformative
modernise
dragging
sexually
SAFA
Joel
shareholdings
dinners
flee
Imagine
Celsius
Campus
pipe
ramped
Embraer
murabahah
wisdom
constructed
Hartini
diversifying
fortnight
academics
independents
Jazeman
Gemke
concede
leasehold
ethnicity
##ytechn
NPI
Artificial
Whatsapp
fostering
Fauziah
SIBS
Sayyaf
diversion
deliberation
JAIP
tendering
eventualities
surfaced
substitutions
sticks
reversing
pivot
Rodriguez
Fairuz
sightings
Gurun
Estab
roots
MVV
uniforms
correctly
Matsuyama
Rafizi
onboarding
Performance
Shortly
discretionary
1980s
KDEB
griev
guns
SJKC
disqualification
intermediary
Film
Filip
Yamani
overlap
Israeli
attained
downgrade
plaguing
Liberian
Events
interpreted
Kangar
rooftops
wonderful
Gelang
rallied
leakages
condemned
Nusantara
Mehat
payrolls
PAHANG
redeemable
architecture
Brooklyn
wakaf
salvage
Carlos
tyres
hydropower
Bonnie
Oriental
WTCKL
Lucas
mastermind
sanctioned
Muthu
Syazwan
Quarter
inheritance
inequality
Lumut
biscuits
tycoon
flattish
Atlanta
Roshayati
refriger
Lavreysen
MUSANG
Akhbar
##building
antiviral
Sithamb
Tzu
bungal
tussle
pragmatic
multicultural
sensitivity
Fishermen
traumatised
unreasonable
Eswatini
SFD
pineapp
##utureJobs
Rajagobal
literally
inexperienced
resiliency
smoothen
Kadamaian
Frederick
Fukushima
Materials
sundry
unresolved
Jambaljam
Dzaimee
Flandy
Istanbul
Semiconductor
Voucher
frameworks
Enauta
Amihizam
Agnifilo
Solgyu
030
Areas
Bly
Band
Beng
Bau
Body
Cy
CG
Cag
Cant
Crown
DPP
DGB
Dynam
Eh
Flight
FSSB
Fully
Gani
GLA
HU
HP
HV
Hom
Hell
HOA
Iq
IL
IBM
Je
Kand
KASA
Klinik
LK
Lake
Love
Lanj
Linda
Mill
Milit
MGB
Mbps
Nu
NIA
NSI
OSC
OANDA
Pill
Pall
QL
Rw
Rac
Raw
Russ
Ruz
Sell
SSM
SWP
Tar
Ters
Ties
Tact
TUMP
Tarm
Tua
TEM
Vell
Weng
Wond
Zon
Zikri
bud
bout
bother
dump
dash
fond
fighter
foss
fiber
gro
humbled
iP
keringkam
loo
lamb
lobb
municipal
pause
rh
sangu
sinking
tor
urea
vom
vans
vocational
vocal
##rest
##rue
##rations
##ait
##cg
##kong
##kick
##ktar
##top
##felt
##lav
##ytic
##hors
##gencies
##vies
##AV
##BD
##LS
##zens
##IF
##jasa
##GK
##ürk
##heart
##eros
##erasi
##atches
##anathan
##ingu
inad
##ishe
##ece
##ecia
##rehend
##aying
##elet
##adle
##terior
stir
stems
##olic
##olina
##utom
##uteh
asham
##otely
##igroup
reper
reapp
##imoto
##ersion
##emption
##ldown
##rizal
##thy
##ivative
##artial
hailed
composure
compressed
##usthi
shield
recuper
seo
incess
##videcia
envir
##ohan
##astrous
Hext
Hektar
##ouse
Inn
##ardo
##ardon
##awatt
claw
invests
##olla
additions
Chye
spin
finishes
Weather
stranger
Indoor
dissip
disastrous
overcon
overlook
overhang
##airaj
fires
firing
accol
accumulation
##eki
##ajam
##erald
##aizi
regrets
remotely
Mohideen
throughput
respite
endure
cov
Isolate
1560
Azrol
Azih
brink
Peremp
Perception
1830
1865
winnable
USA
USJ
subordinate
publicity
transp
distingu
##iani
##ologists
somewhere
1600
terminals
Convidecia
Ens
Results
Reserves
startup
diarr
respectable
technique
technicians
Athens
Singaporeans
Amy
smashed
boon
headquar
Prices
showrooms
slumped
collateral
imag
Place
planes
dried
entrants
RM550
digitalise
Arshad
payouts
506
aired
metals
suspending
MyT
709
##ockey
Agus
menu
Emil
protests
foods
Withhold
successive
MPOA
Brig
SMA
portray
Examination
Najwah
roundtable
considerably
32nd
338
Bernhard
456
751
753
static
loos
359
568
emergencies
##partite
Klawang
debit
simulation
Darjah
905
lethal
423
AFS
656
significance
Maybank2u
hardest
374
55th
understandable
668
Satw
tracked
082
restrictive
RM98
Opens
733
736
Tenggar
641
RM77
##ometre
619
615
617
616
Bersih
671
67th
##emiah
Senoi
74th
495
714
687
826
82nd
787
786
445
nomin
RM102
RM106
##trich
mighty
698
Contact
youthful
951
953
Bakri
Application
055
056
05pm
967
929
925
920
##legal
841
945
Tele
Penguang
stockbro
mentor
022
eleven
establishments
disproport
windows
Overweight
##STI
Axis
Hisyam
curated
Funding
##anchise
Balang
audits
Taiyo
Hala
001
Templ
Seputeh
Safiq
Infantry
Zakat
PCG
Majais
##scar
heartfelt
Belat
RM129
Nazim
Nazifuddin
Semak
prosecuting
boyfriend
replacements
##alingam
MIER
advancements
educators
Jeremiah
streamlined
1975
1977
##asiah
Fadil
calib
Impian
RM131
NGC
adjusting
Hafid
##cheon
Avoid
unserved
unsustainable
reinvent
RM145
RM144
demonstrating
sprinter
Kiang
STOL
occupying
irrigation
IBR
IBFC
crowdfund
Badri
Badrul
derivative
Erm
sensors
correspond
AAA
Tawf
Tawas
safeguarded
complementing
privacy
Kaiat
Keat
Engineers
extremism
Changi
hydroc
Career
Datap
adequately
compensate
showcased
showcasing
Velo
Dominique
Meenak
Jazeera
9MFY21
EcoWorld
humili
HRV
HRD
Jakoa
ferrying
##rimusthi
Collective
##DMA
Moscow
Tongod
Intanon
quantities
1905
Certain
vendor
IRDA
films
Citigroup
NEG
synonym
15300
Misaki
excluded
Tiang
capsize
unifi
cracks
substations
birds
broadcasting
unlocking
Lanchong
rivalry
NADMA
proportionate
remedial
detainees
Olak
ascertained
blew
pharmacists
RWG
Accountants
calculated
IQI
scanning
Censof
enablers
interpreter
Robotics
MyCEB
Nazirul
Casagr
WCT
razed
spoil
Entrepreneurship
NUTP
anonymity
anonymous
PAHAT
Deaths
hanging
retrieve
Debt
Koperasi
Welsh
Nabawan
GAJAH
republished
assertion
influencers
catastrophic
Kristian
Ardianto
smartphone
Alternative
Responding
Unifor
Harvinderjit
ECERDC
B2B
Mudz
##oenix
reimburse
kindergarten
Warijo
Diploma
Cinemas
advertisements
persuade
Cambridge
Zaiham
cohort
##ekeeping
Primary
Chonburi
physiother
uncovered
Dalat
Ewon
SEGAMAT
Praaq
cucumber
Asfia
humbly
sparring
emptive
Maharani
observations
Pelangi
Juwai
Zenith
pockets
##stroke
impassable
repechage
renounceable
Tajikistan
scandals
Departments
Anbalagan
Screening
JAIPk
Established
Sithambaram
Jambaljamts
Blyth
Military
TUMPAT
##ürkiye
ashamed
Hextar
overconf
Perempuan
Tenggaroh
Meenakshi
synonymous
4Q21
AV
Ace
Aik
ASB
Bit
Boun
Bunt
CGB
Citr
Cinta
Cement
DA
Dian
Dani
DAT
Echo
FTA
FRA
Founder
GSC
HC
Hair
Herm
Hamb
Hert
JEN
Kil
Kut
Kish
Kwang
Kaur
Know
Kanta
Kayu
LE
Lomb
Lyn
LED
Lingga
Making
Mert
Madius
MCIS
Nid
OKU
P2
Por
Pafa
Rover
Ryan
Sind
Soph
TW
Tend
Target
TING
Türkiye
VP
Vit
VAT
WS
Wing
Wats
ail
ailing
arose
averaged
bru
bins
bids
cad
cakes
census
dumping
ecl
ecotourism
gent
gall
ganj
ginger
hills
hockey
jets
ma
mum
nuclear
pit
rushing
squee
tut
tek
tiring
vet
##ridin
##aar
##naf
##manship
##due
##iati
##sl
##uber
##lec
##pool
##hum
##xing
##Mart
##je
##jak
##EI
##Ch
##Chem
##wart
##Feet
##Get
##PO
##Penang
##HS
##WTS
##XT
##onments
##onautical
##esters
##arong
inappropri
##asive
##ilamat
##idency
thread
##stering
##ete
##eting
##etech
##verified
revert
##imm
alerts
conce
prote
##aks
##akesh
##akovic
##aint
existed
##erez
complements
advertisement
##uming
shirts
recurrence
hasten
incorr
##apar
expires
resounding
Heine
leaked
unverified
invo
invit
##ipan
##aila
##arks
Chik
Chuan
flip
abusive
##odes
outgoing
prey
##ervoir
minors
##arib
assent
##iko
intervals
Stop
regi
Itam
marketability
Alia
Always
Alza
##identally
Shun
scaled
Jane
preschool
15A
##itsu
Azra
grows
Perum
1860
1895
1825
defaults
heroes
Selama
Projek
Unifi
busi
RM202
RM263
RM270
RM214
Anu
Antar
Marquez
Convent
backyard
takeover
Reservoir
bankers
##PSB
##ractors
caller
greeted
technically
standpoint
standalone
solving
##ugam
Amat
Melawati
Partiban
grace
conclusively
283
##atients
farmer
refresh
proposes
worthy
##aidah
PetChem
systematically
avenge
707
Kampong
Corolla
PKB
RM81
heavier
speciality
specialising
moderating
SMT
Phoenix
609
607
602
consumed
Monash
Engku
files
hitman
807
804
759
36th
soonest
##ICE
excav
56th
##kuang
Hoi
debates
##ORTH
moon
finds
injust
725
722
motions
669
wrist
0849
574
problematic
487
RM99
RM92
Sevent
Seidel
594
##RANG
624
637
Consulate
Consensus
RM750
61st
Generally
674
093
092
742
496
828
Reit
783
443
RM109
RM101
473
Ngu
079
971
expressway
CPC
03am
transporting
Kusial
952
##INE
917
897
892
058
054
966
010
commercially
virtue
divisional
835
872
Zahirah
normalising
847
045
946
936
029
Economics
combating
evidenced
ICULS
##ocrats
mandates
denial
Critics
lightning
humanity
pickup
Baleh
misinformation
##vertently
##ypark
Izam
REV
RED
006
seizing
reminding
PUI
Tennis
MySDG
Premium
footprints
##ARE
Redza
MRI
Sharul
Sadly
sizable
Belaga
Morning
GoGet
consisted
Organization
Organisations
Judges
spiritual
Greece
Transportation
Authorities
widening
##phard
##razy
equalise
Carilamat
##atinum
prediction
RM159
RM151
RM136
Guiati
advisors
##chem
sheltered
RM180
1958
billings
expeditiously
criticising
Saddil
proclaimed
shallow
bearer
Projects
COO
STPM
NCDs
Talk
Volunt
mistaken
Kasma
frequencies
Suhaili
graduated
Hamidon
SAVE
SAINS
Integration
painful
##azette
Lazim
Shahruddin
Payroll
blocking
Batas
Yahyah
Pandak
Imri
##chery
Cherishe
touchpoints
KeTSA
Riad
colleague
durians
PRG
PRN
relocating
tripled
Frenchman
Sivakumar
##iatus
Loan
TAWA
vulnerability
MTN
ranges
Alexandra
Santubong
Electronic
masses
stipulates
Studio
Advisor
shrinking
consequently
conceding
advertised
Automation
bolstering
speaks
Tropical
reunite
Testing
advocated
Responsible
##rocod
SJPP
cancellations
McFeet
hurry
hurting
##castle
Lambert
apparently
Congrat
Biotech
IND
INED
##uffed
Certification
affiliated
concentrated
enliven
substitutes
queues
##DELA
Prosecutors
spouse
Tomson
augur
augurs
sighting
RPA
cartels
cookers
Chingay
Matsutom
tarnish
161A
congregants
remedy
Feisal
reaffirm
agrofood
bicycles
monetise
rejoined
Durakovic
Population
Adriano
RON97
CIDB
turmo
immunised
SAPP
discontinued
bandw
##WAK
Connect
SkyWorld
LSS4
bombing
Calvin
Ekonomi
Hungary
extraction
instalment
Rasmussen
##ennials
Savings
Tembeling
Drive
rebranded
nurtured
corridors
underscores
Ringin
Stephen
Pernas
surprisingly
Welson
Minerals
Procurement
encroachment
jeopardise
Aleef
Sazali
Kukus
chillies
Question
accuracy
subscriber
Lambo
wreaked
Slovakia
Risda
Yogendran
baht
fierce
reprimanded
carcasses
Rowi
Processing
Advocacy
intersection
##ropolis
Syndrome
dealerships
Jefridin
pegged
SARAWAK
##ieyati
MBSJ
Diversified
SPRWTS
Retirement
Demokratik
dovish
bracket
epidemic
Optimax
syllabus
stigma
enormous
pineapple
Lanjut
Rwanda
Vellfire
Zonis
fossil
sanguine
environments
coveted
Bernhardt
stockbroking
Templer
Ermieyati
Dataprep
NEGRI
Casagrande
JENDELA
Kutty
Mertajam
TINGGI
ganja
incorrect
Heineken
TAWAU
McFeeters
Matsutomo
2m
2B
Astru
Awan
Areen
Bob
Biod
BER
Cat
Cem
Cah
Core
CMP
Caus
Cash
DS
Dos
Dana
DENG
Domestically
FX
Fro
Fak
Fail
Fish
Fua
Gurn
Gym
Geograph
GJC
Hor
HIL
Homestay
Ikatan
Jes
Jans
Joy
Jais
Jacob
KJ
Kasa
KFA
Known
Lams
Liga
Mother
Mizal
Nina
Nearly
Old
Py
Pent
PMP
Patt
Pegas
RR
RTA
Ringgit
Room
Rafa
Rules
S5
S1
Sank
Sern
SANDA
Tell
UWC
Very
X50
Yout
Zabe
bust
dom
darat
ess
homestay
hiatus
jerk
keeper
lamp
mic
misc
om
rope
sore
sink
sodom
tad
wore
##nament
##neo
##kel
##mect
##uce
##uccessful
##tin
##ls
##lation
##hoon
##ben
##OG
##MY
##zri
##4Good
##YC
##word
##wira
##wagen
##KIL
##KVE
##NAM
##WS
##JAM
##hemat
##eror
##inters
##atong
##anang
##eda
##esan
##alap
##arawak
inmates
inroads
##itimate
##isse
##omprom
##elong
fork
##aminated
##adig
##irming
##illy
steward
##olin
##vermect
##ige
reorgan
##imming
altered
wastage
##emies
##emani
##angari
##angunan
##chala
exited
##uney
perman
##ivan
##ortion
admir
##ocomprom
##umoto
##rying
enemies
exposures
agrees
rescheduled
whopping
##ifu
implicated
##ordable
Chou
Chile
Champion
Chooi
KULAI
stricken
##quest
disunity
dismal
disorder
commens
##acked
ours
counted
butadiene
##mania
elusive
relinqu
actor
continent
##ogue
interfer
marketed
Shak
dozens
goats
servicing
##ibah
reth
Azhan
evil
defense
subur
substitution
financier
Unless
transmit
distracted
nationalist
##mediation
RM222
##iano
varied
Ango
##icked
Marvin
Penchala
ensuing
Conversely
glorious
quashed
##kswagen
1750
discourage
surger
surges
MAM
MAI
Khun
##hesh
Terat
Terry
Terusan
schoolchildren
requisite
smell
Melati
Melissa
RM350
gram
redemption
Franchise
loses
landowner
parade
planters
refres
extends
Fintech
joins
702
Paroi
faction
drum
impactful
Syaf
Syria
Harm
RM89
RM87
RM82
Emily
shorten
RM68
moder
##orna
MPI
basin
##cken
##mediate
Except
BAH
Mahinan
##anne
donating
optical
##ompan
754
Saud
viewing
38th
42nd
396
723
hardworking
557
667
084
0899
Prepar
##arma
##arms
declines
732
##RADE
645
622
634
Conserv
Tunnel
Teams
progression
46th
Senawang
Zainol
Paku
selldown
71st
##itizer
821
swap
785
782
confidential
992
448
##atchback
Roslin
ICR
Simm
Ngemah
broadc
broadening
076
974
Tourist
ECF
Metronic
88th
798
794
connects
038
Desaru
Contribution
Kuppan
956
speculated
911
renamed
SEAR
##ITE
settings
842
948
FTSE4Good
annualised
dispers
disputed
Laura
Swamy
march
denominated
illegitimate
Housewife
deadlock
Yusop
conditioning
Rajang
tripartite
revealing
Ghana
flowed
surveys
stored
riverbank
Beauty
Opport
freak
Padawan
Padini
steam
Shariman
Justices
savvy
Moroc
Seman
Grant
merits
artistic
##emoranda
pursued
Yoon
ideologies
budgeted
Sahari
Jerip
RM205
Taiwanese
kilow
##world
RM135
Guide
coroner
accomplished
TMJ
##iyoh
unsold
unsuccessful
tuna
tuned
deductions
Sepanggar
RM147
RM142
RM146
SEAGF
Hyun
Skills
bios
IBS
Hafizul
##hoea
soften
Volkswagen
mosqu
Keratong
uttered
Kasemani
emails
displays
Kepala
Rumaizi
painted
Loke
Kawa
ethics
Izzana
Api
Madani
Madrid
Madnor
Delivery
mixing
murky
Munich
carriage
Rahimi
Hasidah
stretched
franchises
Hartamas
Sivamurugan
accusation
PSI
wardens
tells
Faridah
MTUC
ratification
rumoured
rewarding
compensated
sounds
Steering
##139
Idham
hawker
Tasmania
prudently
##rimar
Basically
prisoners
##missibility
muddy
Mosar
Kunlav
Roman
Lotte
JVA
tempo
Kamarulzaman
tendency
overflowed
Tahiti
sequence
homeless
crypto
foreseeable
synt
NFO
hunger
Pharmac
horse
Queens
odour
Fuiyoh
Clinical
Matsumoto
Wilayah
gigab
A330
BUT
survivor
Tsuney
##stensibly
enthusiasts
Kojasa
lengthy
Colombia
unrealised
PENANG
Illegal
offsite
nominees
garnering
Milton
immunocomprom
illustrious
Aquatics
CMIM
inclusiveness
Lepar
Lepas
troubles
Holy
Hirota
paddy
outnumbered
liberal
supervisory
exponentially
Pembangunan
##awarna
surrendered
Tatau
rebranding
Hawkers
contradictory
Forecasting
Cruise
Dellhan
Violet
Precinct
obstructed
Modernisation
Molec
Developers
Coca
Nishimoto
Striker
Aizuddin
furious
##desk
slogan
hazardous
cordial
tamper
inflammation
Naval
CMSA
Kembangan
Tandek
degraded
1970s
lunar
theatre
Subsidy
Bulgiba
Participants
VLN
arbitrarily
RYRT
Texas
ultr
troupe
cabotage
unrelated
ammonia
Oxford
TIME
graphic
Americas
PORT
rabies
Envoy
Buddhist
Pearl
Tbk
machineries
inadvertently
incessant
transpired
diarrhoea
Mudzrimar
overconfident
Citrawarna
Echoing
Hermono
gentle
inappropriate
regimented
Perumahan
turmoil
Astrup
Areena
Causeway
DENGKIL
Fuaad
Gurney
Pegasus
SANDAKAN
Zabeel
##vermectin
permanently
surgeries
Kunlavut
Tsuneyama
immunocompromised
050
002
1min
Aly
Aifa
Arau
Bis
Bee
BPR
Bemban
C4
CJ
Cust
Cres
Catch
Catal
Daya
Deal
Docu
Fan
Fast
Fru
Firman
FSA
Friend
Gay
Give
Gap
Girl
GSMA
Have
Jose
JKK
Kuang
KSM
Kien
Lup
Liver
LTA
LLA
Mab
Maid
Milan
MHB
Mathi
ND
Nanda
NMB
Od
ON
Oce
Obs
Ott
Pier
Pint
PFI
POL
Qing
Quang
Ru
Roo
Rud
Rayan
RANA
Search
SFI
Tent
Tup
TAN
TAR
TGV
Udang
VI
Vern
Vitor
WR
Wer
Ward
Watch
Woon
Yemen
Zal
Zoo
Zuh
Zaq
ax
bacter
bowed
cried
cows
caves
dot
daun
dawn
dangers
focal
hits
icon
lent
maw
mapping
owe
ostensibly
pour
ric
ray
sigh
tep
tiles
woo
##rists
##racts
##nell
##nik
##city
##corp
##eous
##mare
##iu
##iances
##say
##sol
##ski
##taz
##feld
##lé
##lie
##oz
##hies
##bb
##xus
##gm
##gut
##vation
##Tree
##TEC
##zab
##jir
##RE
##UAN
##wings
##PL
##VB
##DU
##WORTH
##JB
##erB
##eris
##erget
##onel
##attered
##anakan
##edes
##aro
##ariti
inch
##iters
##itipan
##asih
##asaki
##oma
##omy
##omon
##reve
##elie
##urung
##illes
stur
stark
stubb
##olon
##olars
##utra
##lyas
alumni
conve
##akub
##osity
##ema
##emma
##anging
exiting
ancill
##ooter
##agging
##daya
RMP
##ante
##antis
notwithstanding
compiled
advers
pronged
shores
recusal
recalib
contra
contaminated
##aport
##apist
##apreve
energet
1948
orphan
leveraged
##allang
uplifting
##inee
unjust
##ellantis
##ounted
Charg
Chien
Church
flout
##sewhere
indeb
indisc
##ALI
strange
Independ
Minetech
intub
disin
communist
##ervical
##erville
##licts
##airports
##ruv
supplements
relook
continental
##ogging
RM170
Stellantis
timeframe
##ittings
##ittoral
Sarawakku
12pm
Alim
Albar
##identified
Shipping
##okes
##weights
scream
confront
conflicts
##auses
##oyog
1570
info
retali
##ravel
bracing
brushed
Peranakan
1845
define
crushed
Selgate
nowadays
##afly
myC
cares
##erness
glitch
##lementary
quad
Resident
##ensing
Levy
discrep
suraus
Khamar
downwards
wherever
deleted
##rolled
Melalap
RM330
RM322
traveling
slide
2610
Manis
entice
Spring
individually
Articles
Olympian
experiment
airspace
Finally
Sosial
idle
futsal
achievable
##inggu
##TANI
##TAJAM
promo
Sheyan
Syl
RM88
latency
modes
modified
modelling
forwarded
MPL
Brands
representations
basins
Norz
instantly
Elsewhere
PKRCs
Exco
Hishamuddin
Engagement
803
752
Sait
Saeed
righteous
FCAM
squatter
39B
659
655
arranger
37th
0867
48th
Yaakub
RM94
label
73rd
Aliff
Peoples
spreads
410
416
41st
635
636
RM78
insolvency
762
612
6147
momentous
automate
nightmare
cashflow
824
772
44th
RM105
ICPS
476
questionable
Ngah
077
073
975
972
976
benchmarks
Labu
GET
885
887
791
790
Recre
Records
033
695
694
##adians
955
specify
masking
Transm
IPK
Computer
Composite
similarities
commercialise
Austin
839
875
923
PPB
barr
personalised
Ramlee
Ramkar
048
celebrates
fallout
931
934
021
023
026
068
Bahiyah
facilitates
Kimlun
EPC
Axia
Arabian
balancing
reciproc
renewables
misery
misused
SunCon
MySPR
FamilyMart
Profiteering
exceptions
Redang
cycles
Canadians
freestyle
resigning
Sharvin
exceeds
Rusli
bullied
departing
heartbreak
##evity
RM125
SPIC
CEV
Mengkuang
Noting
Networks
MET
MENA
yielded
Kemena
Emperor
budgets
Carigali
Carolina
accommodations
1978
Suriani
RM208
Imports
RM137
Guides
Mida
battles
factoring
surviving
proudly
Outreach
publis
disposals
Hafez
Avolon
tunn
tuning
landfills
Hussian
isolating
popularly
urbanisation
narrowly
ferries
memorandums
bedroom
HSK
relaxations
Skaar
clientele
COA
RM161
Supplementary
crowding
documented
baton
positives
Talha
racism
RM177
comparable
1968
##ENA
exhibit
Ronapreve
stimulating
functional
JPBN
prolong
prolific
Kalidas
psychometric
CCRIS
Posa
guarded
guardian
Delrue
Donald
Mahesh
concessions
Campos
dominating
pipes
AMG
AMD
reckons
Utd
RM247
scenes
epic
##ESI
Kenta
LoA
TAFI
Fernande
Kontr
Hasanah
Anthon
Hairol
redevelop
redeemed
Nestlé
Ordinances
supervised
compliment
advertisers
overtake
universal
sweat
Gunalan
TPG
Fadhli
ethnicities
Ladin
Shaary
##BAI
PTK
seamlessly
Fazri
Passport
Malls
BEV
1901
unexpectedly
PETANI
assemblies
oversold
UMNO
Julau
Administr
stemmed
wondering
accumulate
Pharmacy
Jamilah
uncond
Experience
Mobility
Vivien
maximising
Concurrently
dignit
compassion
##FY22
exceptionally
Wilmar
Festive
reluctance
tallest
Rafique
exploit
explosive
songket
Sivasangari
cushioned
duped
hilly
Antony
Jobless
Personally
landmarks
newcomer
enthusiastic
marginalised
##oirs
eliminating
Cleansing
Mitec
downloaded
therapy
toilets
eradicating
revolutionise
disappearance
manipulated
discontinuation
SICC
Normally
SLS
wrapping
Lebuhraya
Solidariti
Walk
enrolled
megawatts
megawatt
exhausted
abolish
demographic
paragraphs
refinancing
supervisor
MLFF
Satees
hindered
##TERWORTH
ancient
Mesra
Frequ
cellular
reinvestment
bankruptcy
MGTC
Zolkafly
Nylex
recurve
Fitri
Ulama
refurbishment
Ezra
Gokhan
MERS
MERTAJAM
NFTs
Destini
congregational
landlords
Thirteen
Aruwin
inaccurate
reintroduced
Animal
DoubleTree
Suara
contemporary
Religion
incentivise
Ebitda
Surely
reinsurance
deducted
Obviously
Untong
roadblocks
Germans
Henry
smelting
FLFAM
unearth
ancestral
GDRN
Suryani
Achilles
Bermaz
KANGAR
prowess
Coalition
##iksairaj
Melanau
Doctor
Mumtaz
succumbing
mercy
deterrent
bookrunner
Hydro
bungalow
Cagamas
Satwiksairaj
Tawfiq
hydrocarbon
Herttrich
ailment
tekong
protein
Azraai
injustice
Voluntary
##rocodile
Congratulations
SkyWorlds
Lamsfuss
##adigm
rethink
MAIWP
Morocco
kilowatt
Queensland
BUTTERWORTH
Crescent
Liverpool
Mathias
RANAU
stubborn
indebted
Sheyantha
Ramkarpal
Skaarup
Fernandez
3Q
3am
3rd
8m
A1
Bing
Baj
Baz
BHB
Bidin
Bolk
Case
COP
Comin
Dak
DIC
DDI
Duc
DTG
Dorna
Ei
Es
ESS
EPMB
EDF
Fi
Fine
Father
Feed
Gall
Gala
HIC
Handal
Ips
IEE
Jati
Jets
Jawi
Kast
Kij
LR
Less
Lani
LAB
Little
Lyu
Mam
Mia
Mare
Much
Match
MTL
MTP
Nut
NKVE
Oak
OACP
Peh
PTA
RK
Rot
Rag
Rub
RIS
RBT
Samp
Sian
SKM
SIP
T7
UC
Ups
Vide
VSI
VBI
YOR
Yuz
Zhi
Zaleh
apt
bay
cand
dare
dying
dips
fid
fool
gut
hors
la
lied
litter
laser
mul
males
nest
pamp
puzz
pizza
rans
rook
snow
ted
vending
wer
##rison
##cen
##dled
##dlers
##iary
##sis
##salam
##uaca
##lay
##lullah
##pie
##pine
##hd
##hma
##bike
##x3
##T1
##LOH
##jie
##Com
##UANG
##wen
##First
##GH
##Gas
##WAN
##enary
##anols
##orage
tok
##itud
##itches
##ente
##isp
##ilisation
##icorn
##elan
##eland
thumping
##urat
stoves
onshore
##igrant
##imated
##impin
##sie
##owment
heirs
##akings
##osy
##rium
##usiness
20s
##angering
exod
sue
##arty
complicate
adduce
shaped
plac
plum
seeding
inclement
energ
1920
resent
reside
resche
Hein
leased
##alless
##ichten
##arded
alliances
clauses
CoBT
##inea
unidentified
Thous
replicate
Chal
Chap
Channel
spurring
##ubuhan
abuzz
underval
strains
newest
##quets
outf
outdo
##lius
##acking
overly
monoc
##lick
##rup
supporter
##ikha
teeth
RM195
betrayed
Stable
Strug
Storage
incremental
Abba
matched
Share
Shih
##oko
##izo
presiding
presidency
enduring
thematic
goalless
##assar
Isham
1545
infants
infograph
sheer
effluent
totaling
##egun
officiate
grouping
depots
brush
affirm
1840
highlands
Selva
Selangau
wheat
transmissibility
distanced
bucked
##geant
accepts
Anek
facel
Marin
Forests
liked
1630
##efli
##uke
housew
query
Reset
Kelab
longevity
KLUANG
wherein
authors
delete
persists
Atan
Teresa
importation
##uga
##ugs
mayors
esports
RM320
redef
Pride
Prann
##gets
slaugh
sluice
competes
investigators
politic
Plans
##ayaan
drif
Manj
Manpower
RM530
Archery
Aranols
Omnia
##atherine
handph
Petchem
##ussalam
Airasia
Sov
drill
Sungkai
29m
builds
Syamer
Haris
earners
protesters
specialises
specialisations
##ceptible
RM650
modifications
pots
basics
taxable
brew
guy
syring
Norul
blend
blended
##ysamy
Najwa
Mahf
Maharan
inflicted
Mont
powering
participant
##iov
347
realisation
Putri
Bernard
warfare
459
looming
Assuming
Kluster
rainwater
FCPO
judging
Darussalam
909
907
Music
Museum
657
653
721
motives
Azizi
55am
divulge
tracker
739
735
7393
647
642
638
632
##reciation
insured
skew
618
Berembang
tithe
cleaners
##lishing
096
0919
nightcl
swear
swearing
Rosida
477
Simang
regulating
##ERLOH
##beiner
lifelong
884
progresses
031
037
##appa
859
856
913
Apple
Appreciation
replaces
proposers
864
961
963
Mental
83rd
877
PPD
846
84th
046
viruses
fathers
Matang
937
primer
Shafi
Karang
combinations
065
064
Swine
marsh
favouring
favourably
Gerawat
Houses
engineered
Lowry
Defender
Ghulam
cruel
crossbar
Balah
misman
medalist
certifications
Irish
examining
Sepadu
dissenting
definite
journeys
undertakings
##scf
Rela
RM122
Naziah
liveability
Seminar
terrain
Gradu
boycot
transitioned
punched
##itaa
Bangunan
Banggol
HLB
##phans
Adding
Jerai
Jeremy
##flation
probability
accommodating
breadwin
disclosing
Guinea
Bandaraya
clarifying
Pertubuhan
FAQ
RM189
Nonfarm
paths
Beny
Edward
Edisi
sanct
Neave
bribed
PDF
Protoc
Protected
executions
Badli
answerable
softening
Samah
Customer
coordinators
Rozi
RM175
Keramat
Kerjaya
spectacular
comparing
1965
##uzaman
Jae
mutations
Incre
##iagaan
militia
females
##Inf
Hazli
Madinah
Tangga
mixture
historically
Cherating
worsens
safeguards
shipbuilding
gazetting
Yuen
Embong
veterinary
trails
fundamentally
occasionally
acknowledging
concessionaires
explanations
PSR
Ranhill
Hilal
Supak
##opolis
Kumitaa
incorporates
##uciary
rehabilitate
pumped
temperatures
Realty
showcases
trophies
communicating
storms
burns
Jaziri
crying
Linked
##khla
murdering
Gunsalam
reacted
reactiv
reactivated
Basic
Basel
neglecting
warranty
RM262
flyover
aggression
Fazz
Refuge
FFU
scientist
pharmaceuticals
Veteran
Victims
Doubles
conducts
NCID
abandon
tremor
tremors
pregnancy
Patrick
Rayer
Sebatang
rigs
rigid
Smallholders
Techo
coloured
Macpie
Julian
Julius
NFDP
eaten
diagnosis
Komtar
rooted
Adiba
HKEX
Kahar
LPI
MVIA
Trip
sympathetic
Dutchman
symbolic
Heavyweights
ShopeePay
Licensing
remediation
Sivasubramaniam
FIHB
FIFA
Kanow
Oliv
Feichten
YBGK
Jayum
Jayakumar
Davis
reinforces
CACs
solicitors
JMGB
##bitration
overlay
Fayadh
Scholarship
VSolar
CVC
conspired
simplify
Visit
Visitors
##lusions
incredibly
DNAA
Dhruv
##enthiran
Argentine
Nusa
semifinal
Jabatan
NUBE
deteriorated
Driving
underscored
Rainforest
Songkhla
uncontested
Perniagaan
Botan
asthma
civic
Forecast
aeronautical
prejudice
Luckily
republishing
Balakong
Balakrishnan
influencer
AW139
landlord
Hornbills
Kakus
Zabidi
withholding
Coroner
Chemistry
hypermarkets
Prophet
WTO
outright
Sharbini
Sharbinee
erode
calamities
furnishings
Callum
kiosks
depleted
DUBAI
Eventually
nascent
Epidemiologist
Bomba
LZS
Maulana
Pestech
paralysed
pedestrian
Etiqa
mishap
##bags
hiccups
noodles
expatriates
gloomy
Identification
Mariamman
##official
Prospek
kleptocrats
outweigh
revisit
Aurelius
Louis
bogey
tissue
unaffected
headmaster
Filipino
HVO
Iqbal
LKIM
Pallraj
TEMERLOH
vomiting
reperc
headquartered
Telegram
calibrated
Bitcoin
P2P
Watsons
invitations
Failure
Gymn
essence
stewardship
commensurate
Custody
NDCC
Werften
Zaqhwan
daunting
##feldt
sturdy
ancillary
energetic
Sosialis
Anthonysamy
Fazriq
Bolkiah
Cominarty
HICOM
IEEE
LABUAN
YORK
Zaleha
ransom
weren
exodus
reschedule
Prannoy
nightclub
Feichtenbeiner
1A
4Q
4IR
7th
Age
Ahead
ADE
Bol
BRN
Cend
Cron
CY2
Coming
CMCO
CMA
Catherine
Deng
Deg
DPS
Diving
DCA
Eighth
Fif
Fever
F20
Gets
G20
Gerik
Gazette
HD
Jang
Jee
Jared
Juru
Jpn
Kue
Kole
Kids
LM
LG
Lulu
Laser
Luyang
Mem
Made
MBM
Mash
NI
Niss
Nami
Nhat
NTF
NACP
Opar
Pab
PPP
PON
Patients
Pimpin
Rent
Rather
Ridge
RSPO
Rundi
Rapa
Sail
STA
SSC
Tep
UIT
Uda
UTK
Voyage
Wir
Would
Wild
Yacob
Yosh
Zhing
aest
avert
bests
bachelor
banners
dumped
fame
fumes
fighters
favours
gal
hind
kumo
laugh
looting
nasi
navy
pec
tapped
tuition
vetting
wine
##aver
##aos
##net
##norm
##case
##kol
##koon
##meted
##dam
##iayaan
##su
##sion
##scribed
##uv
##fa
##fri
##yen
##yana
##yyah
##oother
##hop
##hoot
##bor
##bayar
##xo
##gat
##gling
##gara
##Sc
##vana
##Oil
##Med
##Mbps
##zim
##EIM
##City
##GIC
##HI
##DO
##WAS
##hey
##erations
##erog
##erator
##inished
##onian
##enaf
##orect
##alia
##alaban
##arof
##inging
inel
##isen
##ilili
##ilawati
##idth
##icature
##omfort
##eli
thigh
throat
##stay
##roper
##rodin
##urd
forem
##adas
##adang
##adong
##adhan
##acency
stap
bears
##igil
##imeter
##sien
whisk
heels
##akrishnan
##ulous
##usa
##usc
##abue
##pport
##andang
##chana
exits
exchanged
perished
##ivitis
chased
chasing
notch
compression
weed
itiner
prerog
traces
shake
plates
theirs
##asty
##awee
Coordin
Thom
Thien
##eploy
repatri
##arkar
Charan
sped
indec
##engthen
abst
underne
strides
##ankun
##ods
outlines
outcl
Ministries
##igned
intending
dism
disgr
disob
committal
##ackathon
amic
##airah
suppressed
accuse
##ikah
relay
polyc
Sabariah
##ajaan
workload
interrupt
betray
Stim
Sarip
Saraan
Abey
##urric
##urrences
Alina
Alphard
Sharkar
conserving
scared
endless
endangering
Azsw
evade
beforehand
##hipment
Perp
Perwira
1885
defectors
defunct
Unions
transitions
transhipment
distant
##azz
RM280
Anis
Angg
carving
Concent
Resc
democr
knot
discomfort
performer
##ehari
Asiah
25am
salt
Khus
##AMAS
##ivided
detractors
restrain
smashing
smoother
Partner
RM360
grim
redeploy
Prak
Prisons
Penangite
finale
Plastic
planners
cleansing
Spine
Trinid
extensions
Mayu
Accompan
##aiden
airf
initiating
PetGas
Suisse
Myisha
70s
Parc
Paragraph
Soft
##ocking
revocation
##TAS
reads
readily
responsive
Newly
Cheo
Chepa
Harrie
Adan
Adli
Bright
controller
standardised
SMSB
Phill
Phases
rapport
Norash
Norizam
Norrodin
Couns
blister
Orig
opting
realistically
352
PHC
Hoang
aids
Darurat
904
902
ACSB
AFP
arranging
weakest
weakening
664
571
restricting
Yaani
RM97
RM93
Facilities
Sej
59th
estimation
##RAH
643
629
417
768
613
676
49th
713
Whilst
823
822
swelled
Rein
784
##SCO
Rosland
Roslee
RM107
##ihah
071
Labohan
Meth
optimised
Afkar
scorers
lifeline
81st
039
989
983
980
697
693
materialised
919
aspire
Medal
Medic
893
894
890
rebal
059
052
Nurais
Panalaban
833
836
876
destro
appreciative
924
922
selfish
Zahir
PPC
940
942
Billy
Telev
celebrity
piled
provoc
061
SUVs
instructor
judgement
Balair
Setapak
003
004
Sunther
Safa
Inflation
Nadia
freel
soldier
Sharon
Christina
Ruslan
##scape
##aneous
RM128
Democracy
undem
typical
Krishna
Notice
attributes
Organisers
punching
Judicature
shopMY
influential
borrowed
alternate
lodging
Senggar
##box
streamed
streamlining
PLB
Quay
Humanitarian
RM157
Colonel
Muzak
eyed
Solomon
RM111
Outstanding
RM182
1953
Khalili
Siab
##azaar
proclamation
Editor
Hyper
Hytera
Jenjar
conveni
relaxing
reiterates
furnished
##gyz
mortar
occupational
analysing
##boards
Samaiden
Sentiment
racers
Bangkit
RM173
Kerajaan
exhibited
Kenyir
unfinished
RM255
RM258
Pelab
painting
complexes
Lingk
##royuki
Baharuddin
Payments
catered
CCM
Prosper
guards
Deleg
fleeing
tactic
MaGIC
Maarof
Agrofood
resorted
AMLA
RM245
RM248
Rahimah
trailed
stretching
Riff
Marcop
Rodion
RM211
dilemma
adequacy
Secondary
declarations
existent
gateways
ratified
Kona
MSIG
Narc
layout
rumour
##rosis
prohibits
Endrick
Study
Treaty
codes
envoys
tempered
behaviours
sounded
Ridhwan
refereeing
##ategori
RM272
Automobile
fisherman
##KSON
prominence
behavioural
Fadhlullah
rotational
Excel
Excluding
Shaari
hurled
hurdle
Reference
competitively
slotted
scrutinise
scrutinised
casualty
Biotechnology
disagreement
pilgrimages
##yril
##array
Continues
Continental
Forty
surfing
ampl
ingredient
Sikie
Rozana
Rozina
peacefully
ATMs
divorced
horrif
Gambang
Productivity
Zailani
august
supplemental
unusually
nuts
southbound
Syahiran
RPGT
Kahang
tags
tagline
cultivated
VoC
simultaneous
dignified
##2022
symbolises
unhurt
Chainarong
DEX
millilit
exploited
Taylor
unbelie
subscribe
SHMMP
traumatic
EMs
SGR
Thanenthiran
desperately
Saribas
legitim
SSR
calculation
tablets
Sedar
Franklin
Juil
Mitra
##TIAN
Natxo
Aeropolis
Philosophy
disappeared
discontinue
ADAMAS
Siput
renovations
Sirim
Whereas
hedging
enrolment
uproar
revamped
Capturing
unavoid
refineries
Jiankun
Pembiayaan
electrified
Hiroyuki
Zaaim
Losail
cells
Extra
harnessing
SRAM
terrorist
Elizab
wakalah
abundant
Somerville
Zambri
catastrophe
SOG
TSRC
smartphones
verticals
accurately
endorsement
Principal
subscriptions
Aizat
Jubilee
tornado
revolving
revolves
Norshah
Utilities
##upply
SpeedX
Gateway
Hijau
fractured
Indicators
Lukut
upstaged
abruptly
Sobie
TTDI
reproductive
greedy
Engkilili
Telecomm
Ivory
KITA
Nirvana
WFH
Winds
inactivated
reimposition
##ochemical
alluded
Fabio
allergies
Disciplinary
Mirza
disparity
embedded
reinstated
Angeles
Kyrgyz
Morten
Rezeki
vaxxers
FORM
Hosts
Rambai
sufficiently
psychiatrists
weightlifters
A321neo
MINI
rendering
wafer
##lonal
##imetres
scrapped
MATRADE
Considering
Goalkeeper
harbouring
reinvigorate
envisaged
obliged
blaze
Ehime
Russell
Tactical
reappointed
crowdfunding
Kishida
mauled
busiest
Seventy
bandwidth
Youtube
##hematics
##ifuoco
synthetic
Alyaa
Lupar
Oceania
Rooben
Tentera
tepid
contraven
intubated
disinfect
Vivienne
dignitaries
DICKSON
Gallifuoco
Kasturi
Mareva
Oakwood
Pehin
RBTag
##itudes
Struggle
Shareholders
housewives
syringe
Refugees
Kanowit
repercussions
Degree
Kueh
Kolej
Pablo
PONTIAN
Pimpinan
UITM
Wiranto
##orectal
foremost
whisky
prerogative
underneath
Abeykoon
Azswad
Trinidad
Nuraisyah
shopMYairports
Senggarang
Jenjarom
Elizabeth
1Q
3Q21
4m
4x
Ald
APS
Ack
AIA
Awar
AUM
AITC
Bic
Bened
Byp
Coin
Cater
Cream
CIV
Current
Cypark
Dj
DEC
DARE
ETC
Fen
Fal
Fle
Furn
Fixed
Flex
FMC
Gic
Game
Gint
Gerald
Hie
Hoh
Hau
Hutan
INS
Ivermectin
Join
Jean
JCorp
KB
KR
Kle
Kons
Krau
Kido
Luit
LOA
Lundu
LINE
Mik
Mada
Mev
NM
NL
NCC
Nawi
Nicky
Os
OK
OIC
Past
Pure
Pank
Pair
Pink
PMC
PEM
Rout
RAN
RTS
Rof
ROS
RSA
Rubb
Sie
Site
Salm
Samb
SDB
Sisma
Ton
Ted
Tey
Tian
Tamin
Tweet
Usan
Voo
Viz
Vib
Vert
Vij
VIP
Wel
Wasi
Wendy
Yau
Zu
Zoh
ais
bent
cro
cere
cared
camar
craf
cervical
crocodile
docked
eV
fared
fasc
gel
lover
liz
lists
lighter
ming
mover
mail
mism
makesh
nan
ousting
pas
peng
pardon
pDO
rom
raping
rammed
sided
vault
woke
##rition
##rara
##rancy
##rades
##nong
##naim
##ci
##clusive
##cadia
##kind
##mistry
##iffer
##iator
##tone
##fish
##father
##lance
##lobal
##hone
##bp
##bow
##batt
##bidity
##Sarawak
##qore
##OLA
##TY
##TOL
##As
##LAT
##zer
##zali
##jai
##watch
##wyn
##Fi
##PD
##Hz
##HP
##NZ
##NIK
##Dent
##X4
##inet
##inaz
##onn
##oni
##onent
##anam
##essible
##oram
##arlo
##ione
##isable
##isystem
##asers
##ilis
##ecure
##elton
##staz
##stery
##uration
foreg
##adah
##adja
##illay
stalled
reNIK
##imir
##osoc
comrades
fright
fringe
##emak
Malbatt
##ppling
##char
pertin
sump
##agar
##agus
##erek
RMB
##sody
##ocity
prisons
shaved
recoup
sew
incap
envelop
##iev
explicit
orphans
Heo
##iley
worn
##alli
##peria
uphol
##awesi
allot
##ureate
unaut
unlu
unwind
uneth
unicorn
impartial
imprison
##elli
##ipillay
##oster
reposition
##000
##ordinated
flung
flames
flavour
splin
spends
manually
apprehend
##oda
##odi
##odok
##quel
##ancarlo
Minor
intric
preempt
disband
disarray
commissions
##achandran
overst
minus
decree
canv
##enchers
##ruple
accru
relies
Sabudin
Sabiha
##eko
##aseelan
RM118
Johar
interc
interbank
Steps
Sarosi
1096
soaked
Alumni
Shopp
Sharma
##oken
needle
##izah
goat
confron
confusing
cohe
cohes
coerc
ears
Isuz
infighting
anyway
##avity
##ixon
retal
retro
##ermin
Azhad
Aziah
Azrin
Azimi
depot
##oryana
Peras
Perah
1862
defections
defray
Abdillah
crony
subordinated
annul
annex
Nooryana
Depending
transcription
distract
nationally
buff
RM291
Abdulla
Marco
traits
likewise
Peny
Penawar
##stitute
Conv
##ificant
Enteri
discourse
discrimin
descent
performers
Khyril
downtime
visas
visually
visibly
technologically
delivers
deluge
oilse
Terubong
solem
RM335
##linic
travelers
##atio
digitalised
Spani
Aris
extensively
##ustomed
Omb
##athers
handy
##auna
Jalinan
Airku
MyM
##CCI
reductions
##horised
strategist
Shahrizal
facto
challengers
listened
chemistry
Activity
Agu
Harvest
Harraz
Harassment
RM86
earns
##lamic
Emqore
protracted
nons
modular
MPP
risking
roadshow
singing
Phu
Highness
##asingam
bloom
Polis
explains
##cky
Elector
identities
##ambu
bordering
Mahfiz
differentials
##amana
selloff
Putat
75th
Limbah
Sultanate
##valuation
Hamat
AFL
39th
Musy
54th
372
Masyar
occurrences
6675
treaties
Seang
646
64th
6403
627
practiced
Serengk
Serendah
insight
insurers
Senallang
0903
Pakan
selamat
7160
swall
swelling
Rezal
998
994
996
ICQ
##andaran
078
##ERS
##iciency
Metropolis
Metkel
Afendy
packaged
881
796
##attled
Recru
Recycling
815
812
816
##hersen
982
Box
Boje
championed
855
853
85th
958
910
916
Nurf
861
##ijah
968
SERC
designers
878
lacks
927
PPK
Ramadhan
843
047
949
941
obsolet
Telang
Footballers
Jamalul
##DAC
cancelling
provocation
trustworthy
Liaw
Governmental
suitability
liners
Hajar
063
062
Swimming
facilitator
Kinrara
Cricket
##shop
Rajan
Rajam
Anne
##idsarn
Ghan
cruised
circa
circle
circuits
Akid
Akira
Bala
Capacity
Lastly
Expend
Firemen
009
008
Families
##marie
##marque
Sunny
Temengg
Safuwan
Mustakim
Subuh
Inflamm
robots
robbed
violates
MNU
Farhana
Farouk
##ARTA
banana
PChem
Laws
Lawan
liquified
Reduction
Formula
RTT
knowledgeable
conjunct
##scri
##scious
Below
RM121
RM127
Morodok
undeni
Operasi
tightly
Semenan
Acute
Organising
Judging
Lands
Saharuddin
patent
probes
Suryo
Hanyan
calibre
methodology
RM155
MICE
Solberg
RM112
Manyin
unsatis
expedition
concluding
thrilling
MOSTI
Edwin
Hye
upsides
bailable
subsidise
verge
##iaha
occupation
RM167
falsif
aligns
repeating
derby
cloudy
racer
RM172
Keris
spectator
reforming
1969
Kasipillay
Everybody
Jaami
exhibits
Sulawesi
Suliaha
Palraj
visionary
Bull
Bulatan
functionality
complexities
Priority
Zaharudin
CCU
Apartment
Delima
Tangau
grandchild
Ghazi
Shamsol
Maik
Anyi
Anyway
markedly
complementary
snatch
Confidence
Sumat
aggregator
stabilising
discharging
BIDs
PSD
PSSC
textiles
MAFE
incorporation
RM337
diplomat
wheelers
TAIP
MTT
MTD
UNHC
sanitised
layers
CTO
Electronics
Hasanuddin
Buildmarque
Meow
Ridza
Yunos
MYOR
Ideal
consequence
Davidson
EcoFirst
journalism
RCS
Reporting
cyberbul
suprem
Shaik
Shaiful
Referring
forgetting
Sixty
Nano
Nanning
MASwings
Rhone
predictable
fluctuations
bridging
Ashari
154th
roar
scholars
Nexperia
oversupply
interacting
counsels
Trump
weightlifting
Jaminan
Pingat
Zarif
Piwat
Toma
FDIs
##Kerjaya
possesses
Athiu
vibrancy
augmented
unconscious
inconclusive
southwest
photoshoot
cartons
appetites
Mitsuki
magic
crackdown
Tampines
LRT3
Shennong
Papua
coins
millennials
Sawadja
Intellectual
songs
relieve
Remuneration
Analysis
mileage
reaffirms
exacerbate
##ospirosis
extinguishing
echoing
forums
earthworks
Prasad
reassess
bleeding
grief
Costa
Owners
Childhood
intermediaries
KPIs
Bedamar
DPK
Tunggal
eWTP
perpetu
Syarie
acknowledgement
chaotic
Queenie
reconn
##ifiable
propriet
innocence
Aquatic
Christophersen
styles
underdog
hardships
Hasnul
bowling
##NCER
##iculous
ARRC
Educare
Thirdly
AKPK
endeavours
pads
Explaining
Jesselton
##eemable
AND
deteriorate
whistleblowers
adulter
accreditation
Shaharom
Extension
uncontrolled
overheads
retrieved
PenjanaKerjaya
PCBD
Passengers
Bottom
Showcase
Scottish
terrorists
eatery
goalkeepers
cognisance
cosmetic
Roland
groomed
Broadband
stagflation
Principles
Representing
flaws
infringement
UniKL
Importantly
inflammatory
eroded
1960s
Religions
IGC
kiosk
populace
Kavak
mirroring
MyFutureJobs
Aqil
majors
perseverance
JELI
Wiwyn
Angkasa
palace
Paijo
cousin
fertility
hugely
Dispersion
JAKARTA
oversubscribed
pundits
disguise
carpark
embankments
cuisine
uncomfort
biomass
irregularities
Livestock
Linde
Launched
Nobody
Yasmin
bombs
sceptical
versatile
Glenmarie
SCBuild
##ytechnic
grievances
refrigerators
Hellas
Nuatim
Tersang
boutique
iProper
lobbying
STOLport
Buntong
Vitidsarn
CMP3
Rafael
BAHRU
Conservator
LTAT
indiscrimin
myCuaca
Sylva
Saitama
Administrative
Frequency
Yuzy
fiduciary
tedious
mismanagement
breadwinner
Protocol
Olivia
Cendana
Nissan
galvan
kumoDent
ineligible
amicably
Concentrate
Rescuers
DaruratBanjir
Sejati
Balairaya
undemanding
Hypermarket
Narcizo
millilitre
unbelievable
Windsor
FORMER
Roobenraj
Awareness
Bypass
Furniture
Gicquel
Gintong
Konsortium
Mevl
Pankaj
Vibes
Wasiyyah
eVTOL
makeshift
pDOOH
reNIKOLA
##osocial
pertinent
upholstery
unauthorised
unlucky
unethical
Shoppe
cohesion
Isuzu
Mahfizul
Limbahau
Masyarakat
Serengkam
obsolete
conjunctivitis
Semenanjung
UNHCR
Sawadjaan
Wiwynn
iProperty
1st
5th
A2
ADP
AIB
Aids
Araf
ART
Bav
Bug
Biday
Baid
BMC
Blu
Bask
Busters
Cli
CDC
CRP
CYB
CWT
Ding
Daw
Dual
Dass
Demi
Duck
Dane
DPT
EAM
Evan
ERP
Fur
Geh
Gaya
GCC
Giving
Hos
Hary
HEV
Irene
Ide
IDC
Ilias
JDM
Jaffar
KC
KN
Kart
Kek
Kech
Kash
Kawi
Kanan
KRIS
Lap
Lend
Laman
Lada
Lakes
LAH
LNS
Lisa
LBT
Mata
MCC
Makan
Minggu
Nall
Nage
Nani
N95
Number
Nuclear
OF
Offer
OGS
Oscar
Ogut
Pict
Pik
Pake
Pingg
PIB
PSP
Prave
Qat
Quan
Qabil
Rang
Rare
Rock
Rivers
Riet
Rental
Reka
Renan
Ster
Sok
Sitting
Sali
STM
Tre
Tav
Tuk
TNG
Tares
Tariff
Tahan
Tafi
Usman
Veer
Vendy
WB
Wals
Wave
Wakim
Waja
Yaris
YVB
Yoyog
Zariff
averages
bp
coop
du
duck
dressed
densely
eP
eH
eD
eman
fict
fading
gad
ire
kenaf
len
lav
lugg
lasts
leni
livery
milling
mirac
por
pie
pitted
ppts
rib
radi
rocked
sang
saya
tube
vap
vector
voyage
wives
watches
yong
##rent
##riman
##audi
##neth
##cal
##cation
##count
##kir
##kah
##dess
##dings
##dani
##tro
##tration
##yang
##panda
##pele
##piece
##host
##harg
##bru
##buring
##xi
##gun
##vis
##TT
##Air
##MHz
##zing
##zair
##jet
##ESB
##CK
##UST
##wong
##wangsa
##FS
##FT
##Pi
##Ps
##PDE
##PEIM
##VAC
##NDA
##Dag
##hep
##inars
##onic
##enu
##ench
##anth
touring
##armed
##arching
inmate
##itant
##itra
##asification
##ilised
##idmat
##ecoming
##omoi
##elve
##roves
##etapi
##uraz
##vee
##aduan
##adzam
##illem
##illence
##acio
stakes
##utant
##utants
##ectively
asnaf
##otism
##otton
##otrain
##igently
##ersc
heating
##akul
##ulative
wast
##estone
##usegun
##ppery
##andan
##andayuth
##angga
##essa
##unia
perceptions
suret
##agia
##opura
chap
##udam
centers
notify
weavers
##ustin
##ocon
##oceros
traced
tranches
plural
pluck
recapt
sept
inclined
incitement
##iePi
1900
1910
1935
expans
agg
agrop
resemb
##endum
Hean
##berra
lept
leases
leapt
##awasan
unatt
unche
invention
invasive
##epas
##ipel
##ipse
##ordon
spacious
manoe
Weight
abnorm
##oded
##quan
outage
outlining
##ignment
##URES
disresp
##acht
overarching
amassed
amateur
deck
##ampran
assort
elated
##ikawa
relaun
RM130
RM190
interruption
interchange
interiors
helper
Stakan
Abian
Abbas
##okey
21x3
11ha
##issara
develops
economical
scroll
hereby
000ha
dozen
goalm
confection
coat
Islah
1550
1535
1590
shell
retract
Azis
Azilawati
##iverse
localisation
deputies
Drone
caption
cronies
1480
Prov
##auff
transpor
##azon
attracts
numbered
##ireh
Mars
carn
carved
##madi
1700
1730
1720
1795
programming
Kelanang
Leen
activating
desert
descend
2300
2370
goodies
goodness
MARU
25pm
Khidmat
detecting
diapers
technician
studios
Teritipan
resting
##asonic
##ugor
Amz
Amateur
Amazon
Parties
RM310
RM397
graced
grinding
showroom
slump
slabs
investigative
collar
imbalance
Platinum
situ
Negot
empathy
Mann
Junz
propelled
##ergaard
Arman
Arangk
Tran
extr
extortion
worthwhile
##OPE
equation
handles
handbags
takraw
PetDag
metering
mettle
MyR
Fina
Finn
706
drama
dramat
##APCO
halved
reader
challenger
Newcastle
Chet
Cheung
passable
Agnes
Agba
Syn
Syuh
BNS
Harvard
PKPS
Adverse
shortest
specialisation
MPDP
polluted
keys
releases
##elson
60s
Moira
Norli
Polit
legends
Elena
Elopura
lowly
pastries
logic
logical
##ambang
##ysing
Existing
powerlifting
##annan
##annal
##forward
filtration
Superbike
80s
loves
35am
35th
Limbu
Limpele
rightful
segreg
aiding
viewers
Genome
emblem
cooperated
658
6536
08am
0860
YaPEIM
Seventh
PeIP
Tenggara
621
necessit
6327
multif
practicable
Serom
insur
insists
insisting
skilling
skipped
Gloves
679
waive
0933
719
Which
827
labourers
777
MCPDE
Tradeview
Kenneth
Simultane
trek
075
970
Labar
Tournament
GEI
CPRC
firearms
packet
799
##incts
constituted
Scoot
Scope
036
##appen
naturalise
specifying
speculations
Bakun
thanking
898
Register
grades
865
862
responders
IPOs
SEM
SEB
SETI
Ramachandran
Ramdani
848
Telip
##uitable
932
IIB
Rahani
02am
##KMM
Bumburing
Economist
eleventh
deviant
Shafriman
Karimah
complies
complacency
holy
marching
Puah
checkpoints
Crest
Darulnaim
Rajpal
agricommodity
Salem
recipes
misled
Izzah
REL
fairer
##umbling
superst
superiors
tenancy
Profit
Zakri
PCF
volunteering
landslip
Reduan
Canberra
MRSC
Period
Periok
Paews
colonial
colorectal
Sharil
dropouts
bodied
hearted
heartened
undec
undivided
Territorial
Operators
tightness
Semang
Semantan
Semerah
BornOil
fearful
terrorism
##ommodities
Accept
Danes
negotiated
Yeong
harves
narcotics
Empat
borrower
summon
##phine
Benta
Bentayan
tolls
Multip
Presently
Carous
accommodated
1973
RM206
appropriately
generational
generates
generosity
RM152
microenter
Guillem
straightforward
Mui
Muadzam
eyeb
RM113
RM114
mechanic
intellect
Rasau
regularisation
FAO
sheltering
unsuitable
##ieces
1951
animation
catalytic
sponsoring
postpaid
Strengthen
##hyl
Permaju
thrice
RM148
HSPM
endemicity
Neogen
8000
verifying
ridden
STEM
STGA
converged
convergence
Ariake
comparisons
moratoriums
Incumb
towel
Pelagus
Shahrum
impairments
DBKU
Payung
Sanitizer
##jae
grandfather
Expressing
Imai
Imbalance
smuggle
Anything
IMTN
Murut
Murum
doctorate
Firdaos
poaching
sacred
constructions
Haslina
proofing
sadly
Saarbru
outpatient
occasional
acknowledges
Users
Supissara
summer
preferential
woods
bouncing
ratify
Bagg
Baghari
upsetting
Associates
Electrical
Kapila
coden
codesh
parentage
Builders
AEON
Pemanis
sovereigns
##EBU
administrator
RM232
MYEG
Idlan
fuelling
opine
prevailed
Jaks
geopark
ATSB
migrated
Lady
RM261
RM267
Excise
loaded
loading
uncle
Samsuri
Refin
Refinery
unveil
Naning
frustrations
royalties
2000s
quantitative
Biocon
Equipment
Classic
INTEC
Packet
laboratories
tendon
untuk
arguably
stickers
dialogues
valuables
Prosecuting
Piandang
rectifier
wonders
auditorium
hatred
licensees
Gurusamy
firefighting
Tioman
Fernando
regretted
A320
terrible
Pemulihan
Intelligent
Tapis
Kaneko
duplication
Olusegun
LTE
outsourcing
magnific
reassure
Bacha
Koay
gripped
dissemination
disseminate
calculations
assaulting
medicinal
Perkep
Scientillence
robotic
CIJ
Tujuh
biof
Zulfad
sedan
forfeiture
10mcg
##rologist
PGK
Rehda
embarrassing
flourish
KEV
creators
dimension
dimensions
faulty
liberty
Dreamshop
Hilltop
Kesang
Verokey
sirens
leaner
##perturbed
Conditional
Zaquan
dormitories
Seungjae
dissatisfied
##fficiency
derailed
nullify
federations
MAHF
Jagdeep
Details
Cruises
reverted
infanticide
bathing
pinned
breaststroke
BLN
BLand
Gokcen
JFK
scarce
Jalaludin
Rodziah
Moderna
tyre
hydroponics
Hornbill
Roundtable
Titiwangsa
staggering
Thirty
culmination
Nelayan
Ismawi
Ismuni
Potential
fiery
inaccessible
Promotion
Hijrah
calamity
Bersama
diminished
ruined
Shipyard
stockpile
SIRIM
fungible
Engkeh
Peaceful
Telecom
Laboratory
dialysis
Pratama
sedimentation
Celebration
Giancarlo
JELEBU
NSAs
insistence
CP150
CP125
Christiansen
LPT1
alienated
NAPFL
Rukun
mockery
intrusion
peacekeeping
scalable
Merbok
Laksamana
Copyright
Jawahar
jurors
nicknamed
dishonest
CLQ
Covax
Azurin
metallic
Empowerment
decentralised
BToto
Lekir
Purple
Sogo
rugby
##aderie
retrenched
Transformative
HUMS
Tarmizi
dashboard
looph
DATU
Sindhu
WSF
squeeze
INEDs
Bobo
Biodiversity
BERNAM
Jansen
PMPs
omn
Shakir
Teratai
refreshed
Document
Vernon
conveying
Alimov
quadruple
Khamarrul
Recreation
Transmile
tunnels
complimentary
unconditional
COP26
pamphlet
plummeted
undervalued
Soviet
Gymnastics
Rapaee
outclassed
Stimulus
##urricane
airfares
freelance
conveniently
Riffa
nutshell
unavoidable
Norshahrul
Route
Vizione
Vertice
camaraderie
lizard
mismatch
explicitly
imprisoned
coercion
retaliation
solemn
Spaniard
Electoral
Bidayuh
CRPD
CYBER
DuckiePi
LAHAD
Nallini
Nageeb
OGSE
Praveen
Qatari
Taresoh
Wakimoto
Yoyogi
gadgets
lenient
luggage
leniency
[...]
